{
  "version": "1.0",
  "truncation": {
    "direction": "Right",
    "max_length": 384,
    "strategy": "LongestFirst",
    "stride": 0
  },
  "padding": {
    "strategy": "BatchLongest",
    "direction": "Right",
    "pad_to_multiple_of": null,
    "pad_id": 3,
    "pad_type_id": 0,
    "pad_token": "<pad>"
  },
  "added_tokens": [
    {
      "id": 0,
      "content": "<unk>",
      "single_word": false,
      "lstrip": false,
      "rstrip": false,
      "normalized": false,
      "special": true
    },
    {
      "id": 1,
      "content": "<s>",
      "single_word": true,
      "lstrip": false,
      "rstrip": false,
      "normalized": false,
      "special": true
    },
    {
      "id": 2,
      "content": "</s>",
      "single_word": true,
      "lstrip": false,
      "rstrip": false,
      "normalized": false,
      "special": true
    },
    {
      "id": 3,
      "content": "<pad>",
      "single_word": true,
      "lstrip": false,
      "rstrip": false,
      "normalized": false,
      "special": true
    },
    {
      "id": 4,
      "content": "<|im_start|>",
      "single_word": true,
      "lstrip": false,
      "rstrip": false,
      "normalized": false,
      "special": false
    },
    {
      "id": 5,
      "content": "<|im_end|>",
      "single_word": true,
      "lstrip": false,
      "rstrip": false,
      "normalized": false,
      "special": false
    },
    {
      "id": 6,
      "content": "<|im_sp_00|>",
      "single_word": true,
      "lstrip": false,
      "rstrip": false,
      "normalized": false,
      "special": false
    },
    {
      "id": 7,
      "content": "<|im_sp_01|>",
      "single_word": true,
      "lstrip": false,
      "rstrip": false,
      "normalized": false,
      "special": false
    },
    {
      "id": 8,
      "content": "<|im_sp_02|>",
      "single_word": true,
      "lstrip": false,
      "rstrip": false,
      "normalized": false,
      "special": false
    },
    {
      "id": 9,
      "content": "<|im_sp_03|>",
      "single_word": true,
      "lstrip": false,
      "rstrip": false,
      "normalized": false,
      "special": false
    },
    {
      "id": 10,
      "content": "<|im_sp_04|>",
      "single_word": true,
      "lstrip": false,
      "rstrip": false,
      "normalized": false,
      "special": false
    },
    {
      "id": 11,
      "content": "<|im_sp_05|>",
      "single_word": true,
      "lstrip": false,
      "rstrip": false,
      "normalized": false,
      "special": false
    },
    {
      "id": 12,
      "content": "<|im_sp_06|>",
      "single_word": true,
      "lstrip": false,
      "rstrip": false,
      "normalized": false,
      "special": false
    },
    {
      "id": 13,
      "content": "<|im_sp_07|>",
      "single_word": true,
      "lstrip": false,
      "rstrip": false,
      "normalized": false,
      "special": false
    },
    {
      "id": 14,
      "content": "<|im_sp_08|>",
      "single_word": true,
      "lstrip": false,
      "rstrip": false,
      "normalized": false,
      "special": false
    },
    {
      "id": 15,
      "content": "<|im_sp_09|>",
      "single_word": true,
      "lstrip": false,
      "rstrip": false,
      "normalized": false,
      "special": false
    },
    {
      "id": 16,
      "content": "<|im_sp_10|>",
      "single_word": true,
      "lstrip": false,
      "rstrip": false,
      "normalized": false,
      "special": false
    },
    {
      "id": 17,
      "content": "<|im_sp_11|>",
      "single_word": true,
      "lstrip": false,
      "rstrip": false,
      "normalized": false,
      "special": false
    },
    {
      "id": 18,
      "content": "<|im_sp_12|>",
      "single_word": true,
      "lstrip": false,
      "rstrip": false,
      "normalized": false,
      "special": false
    },
    {
      "id": 19,
      "content": "<|im_sp_13|>",
      "single_word": true,
      "lstrip": false,
      "rstrip": false,
      "normalized": false,
      "special": false
    },
    {
      "id": 20,
      "content": "<|im_sp_14|>",
      "single_word": true,
      "lstrip": false,
      "rstrip": false,
      "normalized": false,
      "special": false
    },
    {
      "id": 21,
      "content": "<|im_sp_15|>",
      "single_word": true,
      "lstrip": false,
      "rstrip": false,
      "normalized": false,
      "special": false
    },
    {
      "id": 22,
      "content": "<|im_sp_16|>",
      "single_word": true,
      "lstrip": false,
      "rstrip": false,
      "normalized": false,
      "special": false
    },
    {
      "id": 23,
      "content": "<|im_sp_17|>",
      "single_word": true,
      "lstrip": false,
      "rstrip": false,
      "normalized": false,
      "special": false
    },
    {
      "id": 24,
      "content": "<|im_sp_18|>",
      "single_word": true,
      "lstrip": false,
      "rstrip": false,
      "normalized": false,
      "special": false
    },
    {
      "id": 25,
      "content": "<|im_sp_19|>",
      "single_word": true,
      "lstrip": false,
      "rstrip": false,
      "normalized": false,
      "special": false
    },
    {
      "id": 26,
      "content": "<|im_sp_20|>",
      "single_word": true,
      "lstrip": false,
      "rstrip": false,
      "normalized": false,
      "special": false
    },
    {
      "id": 27,
      "content": "<|im_sp_21|>",
      "single_word": true,
      "lstrip": false,
      "rstrip": false,
      "normalized": false,
      "special": false
    },
    {
      "id": 28,
      "content": "<|im_sp_22|>",
      "single_word": true,
      "lstrip": false,
      "rstrip": false,
      "normalized": false,
      "special": false
    },
    {
      "id": 29,
      "content": "<|im_sp_23|>",
      "single_word": true,
      "lstrip": false,
      "rstrip": false,
      "normalized": false,
      "special": false
    },
    {
      "id": 30,
      "content": "<|im_sp_24|>",
      "single_word": true,
      "lstrip": false,
      "rstrip": false,
      "normalized": false,
      "special": false
    },
    {
      "id": 31,
      "content": "<|im_sp_25|>",
      "single_word": true,
      "lstrip": false,
      "rstrip": false,
      "normalized": false,
      "special": false
    },
    {
      "id": 32,
      "content": "<|im_sp_26|>",
      "single_word": true,
      "lstrip": false,
      "rstrip": false,
      "normalized": false,
      "special": false
    },
    {
      "id": 33,
      "content": "<|im_sp_27|>",
      "single_word": true,
      "lstrip": false,
      "rstrip": false,
      "normalized": false,
      "special": false
    },
    {
      "id": 34,
      "content": "<|im_sp_28|>",
      "single_word": true,
      "lstrip": false,
      "rstrip": false,
      "normalized": false,
      "special": false
    },
    {
      "id": 35,
      "content": "<|im_sp_29|>",
      "single_word": true,
      "lstrip": false,
      "rstrip": false,
      "normalized": false,
      "special": false
    },
    {
      "id": 36,
      "content": "<|im_sp_30|>",
      "single_word": true,
      "lstrip": false,
      "rstrip": false,
      "normalized": false,
      "special": false
    },
    {
      "id": 37,
      "content": "<|im_sp_31|>",
      "single_word": true,
      "lstrip": false,
      "rstrip": false,
      "normalized": false,
      "special": false
    },
    {
      "id": 38,
      "content": "<|im_sp_32|>",
      "single_word": true,
      "lstrip": false,
      "rstrip": false,
      "normalized": false,
      "special": false
    },
    {
      "id": 39,
      "content": "<|im_sp_33|>",
      "single_word": true,
      "lstrip": false,
      "rstrip": false,
      "normalized": false,
      "special": false
    },
    {
      "id": 40,
      "content": "<|im_sp_34|>",
      "single_word": true,
      "lstrip": false,
      "rstrip": false,
      "normalized": false,
      "special": false
    },
    {
      "id": 41,
      "content": "<|im_sp_35|>",
      "single_word": true,
      "lstrip": false,
      "rstrip": false,
      "normalized": false,
      "special": false
    },
    {
      "id": 42,
      "content": "<|im_sp_36|>",
      "single_word": true,
      "lstrip": false,
      "rstrip": false,
      "normalized": false,
      "special": false
    },
    {
      "id": 43,
      "content": "<|im_sp_37|>",
      "single_word": true,
      "lstrip": false,
      "rstrip": false,
      "normalized": false,
      "special": false
    },
    {
      "id": 44,
      "content": "<|im_sp_38|>",
      "single_word": true,
      "lstrip": false,
      "rstrip": false,
      "normalized": false,
      "special": false
    },
    {
      "id": 45,
      "content": "<|im_sp_39|>",
      "single_word": true,
      "lstrip": false,
      "rstrip": false,
      "normalized": false,
      "special": false
    },
    {
      "id": 46,
      "content": "<|im_sp_40|>",
      "single_word": true,
      "lstrip": false,
      "rstrip": false,
      "normalized": false,
      "special": false
    },
    {
      "id": 47,
      "content": "<|im_sp_41|>",
      "single_word": true,
      "lstrip": false,
      "rstrip": false,
      "normalized": false,
      "special": false
    },
    {
      "id": 48,
      "content": "<|im_sp_42|>",
      "single_word": true,
      "lstrip": false,
      "rstrip": false,
      "normalized": false,
      "special": false
    },
    {
      "id": 49,
      "content": "<|im_sp_43|>",
      "single_word": true,
      "lstrip": false,
      "rstrip": false,
      "normalized": false,
      "special": false
    },
    {
      "id": 50,
      "content": "<|im_sp_44|>",
      "single_word": true,
      "lstrip": false,
      "rstrip": false,
      "normalized": false,
      "special": false
    },
    {
      "id": 51,
      "content": "<|im_sp_45|>",
      "single_word": true,
      "lstrip": false,
      "rstrip": false,
      "normalized": false,
      "special": false
    },
    {
      "id": 52,
      "content": "<|im_sp_46|>",
      "single_word": true,
      "lstrip": false,
      "rstrip": false,
      "normalized": false,
      "special": false
    },
    {
      "id": 53,
      "content": "<|im_sp_47|>",
      "single_word": true,
      "lstrip": false,
      "rstrip": false,
      "normalized": false,
      "special": false
    },
    {
      "id": 54,
      "content": "<|im_sp_48|>",
      "single_word": true,
      "lstrip": false,
      "rstrip": false,
      "normalized": false,
      "special": false
    },
    {
      "id": 55,
      "content": "<|im_sp_49|>",
      "single_word": true,
      "lstrip": false,
      "rstrip": false,
      "normalized": false,
      "special": false
    },
    {
      "id": 56,
      "content": "<|im_sp_50|>",
      "single_word": true,
      "lstrip": false,
      "rstrip": false,
      "normalized": false,
      "special": false
    },
    {
      "id": 57,
      "content": "<|im_sp_51|>",
      "single_word": true,
      "lstrip": false,
      "rstrip": false,
      "normalized": false,
      "special": false
    },
    {
      "id": 58,
      "content": "<|im_sp_52|>",
      "single_word": true,
      "lstrip": false,
      "rstrip": false,
      "normalized": false,
      "special": false
    },
    {
      "id": 59,
      "content": "<|im_sp_53|>",
      "single_word": true,
      "lstrip": false,
      "rstrip": false,
      "normalized": false,
      "special": false
    },
    {
      "id": 60,
      "content": "<|im_sp_54|>",
      "single_word": true,
      "lstrip": false,
      "rstrip": false,
      "normalized": false,
      "special": false
    },
    {
      "id": 61,
      "content": "<|im_sp_55|>",
      "single_word": true,
      "lstrip": false,
      "rstrip": false,
      "normalized": false,
      "special": false
    },
    {
      "id": 62,
      "content": "<|im_sp_56|>",
      "single_word": true,
      "lstrip": false,
      "rstrip": false,
      "normalized": false,
      "special": false
    },
    {
      "id": 63,
      "content": "<|im_sp_57|>",
      "single_word": true,
      "lstrip": false,
      "rstrip": false,
      "normalized": false,
      "special": false
    },
    {
      "id": 64,
      "content": "<|im_sp_58|>",
      "single_word": true,
      "lstrip": false,
      "rstrip": false,
      "normalized": false,
      "special": false
    },
    {
      "id": 65,
      "content": "<|im_sp_59|>",
      "single_word": true,
      "lstrip": false,
      "rstrip": false,
      "normalized": false,
      "special": false
    },
    {
      "id": 66,
      "content": "<|im_sp_60|>",
      "single_word": true,
      "lstrip": false,
      "rstrip": false,
      "normalized": false,
      "special": false
    },
    {
      "id": 67,
      "content": "<|im_sp_61|>",
      "single_word": true,
      "lstrip": false,
      "rstrip": false,
      "normalized": false,
      "special": false
    },
    {
      "id": 68,
      "content": "<|im_sp_62|>",
      "single_word": true,
      "lstrip": false,
      "rstrip": false,
      "normalized": false,
      "special": false
    },
    {
      "id": 69,
      "content": "<|im_sp_63|>",
      "single_word": true,
      "lstrip": false,
      "rstrip": false,
      "normalized": false,
      "special": false
    },
    {
      "id": 70,
      "content": "<|im_sp_64|>",
      "single_word": true,
      "lstrip": false,
      "rstrip": false,
      "normalized": false,
      "special": false
    },
    {
      "id": 71,
      "content": "<|im_sp_65|>",
      "single_word": true,
      "lstrip": false,
      "rstrip": false,
      "normalized": false,
      "special": false
    },
    {
      "id": 72,
      "content": "<|im_sp_66|>",
      "single_word": true,
      "lstrip": false,
      "rstrip": false,
      "normalized": false,
      "special": false
    },
    {
      "id": 73,
      "content": "<|im_sp_67|>",
      "single_word": true,
      "lstrip": false,
      "rstrip": false,
      "normalized": false,
      "special": false
    },
    {
      "id": 74,
      "content": "<|im_sp_68|>",
      "single_word": true,
      "lstrip": false,
      "rstrip": false,
      "normalized": false,
      "special": false
    },
    {
      "id": 75,
      "content": "<|im_sp_69|>",
      "single_word": true,
      "lstrip": false,
      "rstrip": false,
      "normalized": false,
      "special": false
    },
    {
      "id": 76,
      "content": "<|im_sp_70|>",
      "single_word": true,
      "lstrip": false,
      "rstrip": false,
      "normalized": false,
      "special": false
    },
    {
      "id": 77,
      "content": "<|im_sp_71|>",
      "single_word": true,
      "lstrip": false,
      "rstrip": false,
      "normalized": false,
      "special": false
    },
    {
      "id": 78,
      "content": "<|im_sp_72|>",
      "single_word": true,
      "lstrip": false,
      "rstrip": false,
      "normalized": false,
      "special": false
    },
    {
      "id": 79,
      "content": "<|im_sp_73|>",
      "single_word": true,
      "lstrip": false,
      "rstrip": false,
      "normalized": false,
      "special": false
    },
    {
      "id": 80,
      "content": "<|im_sp_74|>",
      "single_word": true,
      "lstrip": false,
      "rstrip": false,
      "normalized": false,
      "special": false
    },
    {
      "id": 81,
      "content": "<|im_sp_75|>",
      "single_word": true,
      "lstrip": false,
      "rstrip": false,
      "normalized": false,
      "special": false
    },
    {
      "id": 82,
      "content": "<|im_sp_76|>",
      "single_word": true,
      "lstrip": false,
      "rstrip": false,
      "normalized": false,
      "special": false
    },
    {
      "id": 83,
      "content": "<|im_sp_77|>",
      "single_word": true,
      "lstrip": false,
      "rstrip": false,
      "normalized": false,
      "special": false
    },
    {
      "id": 84,
      "content": "<|im_sp_78|>",
      "single_word": true,
      "lstrip": false,
      "rstrip": false,
      "normalized": false,
      "special": false
    },
    {
      "id": 85,
      "content": "<|im_sp_79|>",
      "single_word": true,
      "lstrip": false,
      "rstrip": false,
      "normalized": false,
      "special": false
    },
    {
      "id": 86,
      "content": "<|im_sp_80|>",
      "single_word": true,
      "lstrip": false,
      "rstrip": false,
      "normalized": false,
      "special": false
    },
    {
      "id": 87,
      "content": "<|im_sp_81|>",
      "single_word": true,
      "lstrip": false,
      "rstrip": false,
      "normalized": false,
      "special": false
    },
    {
      "id": 88,
      "content": "<|im_sp_82|>",
      "single_word": true,
      "lstrip": false,
      "rstrip": false,
      "normalized": false,
      "special": false
    },
    {
      "id": 89,
      "content": "<|im_sp_83|>",
      "single_word": true,
      "lstrip": false,
      "rstrip": false,
      "normalized": false,
      "special": false
    },
    {
      "id": 90,
      "content": "<|im_sp_84|>",
      "single_word": true,
      "lstrip": false,
      "rstrip": false,
      "normalized": false,
      "special": false
    },
    {
      "id": 91,
      "content": "<|im_sp_85|>",
      "single_word": true,
      "lstrip": false,
      "rstrip": false,
      "normalized": false,
      "special": false
    },
    {
      "id": 92,
      "content": "<|im_sp_86|>",
      "single_word": true,
      "lstrip": false,
      "rstrip": false,
      "normalized": false,
      "special": false
    },
    {
      "id": 93,
      "content": "<|im_sp_87|>",
      "single_word": true,
      "lstrip": false,
      "rstrip": false,
      "normalized": false,
      "special": false
    },
    {
      "id": 94,
      "content": "<|im_sp_88|>",
      "single_word": true,
      "lstrip": false,
      "rstrip": false,
      "normalized": false,
      "special": false
    },
    {
      "id": 95,
      "content": "<|im_sp_89|>",
      "single_word": true,
      "lstrip": false,
      "rstrip": false,
      "normalized": false,
      "special": false
    },
    {
      "id": 96,
      "content": "<|im_sp_90|>",
      "single_word": true,
      "lstrip": false,
      "rstrip": false,
      "normalized": false,
      "special": false
    },
    {
      "id": 97,
      "content": "<|im_sp_91|>",
      "single_word": true,
      "lstrip": false,
      "rstrip": false,
      "normalized": false,
      "special": false
    },
    {
      "id": 98,
      "content": "<|im_sp_92|>",
      "single_word": true,
      "lstrip": false,
      "rstrip": false,
      "normalized": false,
      "special": false
    },
    {
      "id": 99,
      "content": "<|im_sp_93|>",
      "single_word": true,
      "lstrip": false,
      "rstrip": false,
      "normalized": false,
      "special": false
    },
    {
      "id": 100,
      "content": "<|im_sp_94|>",
      "single_word": true,
      "lstrip": false,
      "rstrip": false,
      "normalized": false,
      "special": false
    },
    {
      "id": 101,
      "content": "<|im_sp_95|>",
      "single_word": true,
      "lstrip": false,
      "rstrip": false,
      "normalized": false,
      "special": false
    },
    {
      "id": 102,
      "content": "<|im_sp_96|>",
      "single_word": true,
      "lstrip": false,
      "rstrip": false,
      "normalized": false,
      "special": false
    },
    {
      "id": 103,
      "content": "<|im_sp_97|>",
      "single_word": true,
      "lstrip": false,
      "rstrip": false,
      "normalized": false,
      "special": false
    },
    {
      "id": 104,
      "content": "<|im_sp_98|>",
      "single_word": true,
      "lstrip": false,
      "rstrip": false,
      "normalized": false,
      "special": false
    },
    {
      "id": 105,
      "content": "<|im_sp_99|>",
      "single_word": true,
      "lstrip": false,
      "rstrip": false,
      "normalized": false,
      "special": false
    },
    {
      "id": 116,
      "content": "\n",
      "single_word": false,
      "lstrip": false,
      "rstrip": false,
      "normalized": false,
      "special": false
    }
  ],
  "normalizer": {
    "type": "Sequence",
    "normalizers": [
      {
        "type": "Prepend",
        "prepend": " "
      },
      {
        "type": "Replace",
        "pattern": {
          "String": " "
        },
        "content": "▁"
      }
    ]
  },
  "pre_tokenizer": {
    "type": "Sequence",
    "pretokenizers": [
      {
        "type": "Split",
        "pattern": {
          "String": "\n"
        },
        "behavior": "Contiguous",
        "invert": false
      }
    ]
  },
  "post_processor": {
    "type": "TemplateProcessing",
    "single": [
      {
        "SpecialToken": {
          "id": "<s>",
          "type_id": 0
        }
      },
      {
        "Sequence": {
          "id": "A",
          "type_id": 0
        }
      }
    ],
    "pair": [
      {
        "SpecialToken": {
          "id": "<s>",
          "type_id": 0
        }
      },
      {
        "Sequence": {
          "id": "A",
          "type_id": 0
        }
      },
      {
        "SpecialToken": {
          "id": "<s>",
          "type_id": 1
        }
      },
      {
        "Sequence": {
          "id": "B",
          "type_id": 1
        }
      }
    ],
    "special_tokens": {
      "<s>": {
        "id": "<s>",
        "ids": [
          1
        ],
        "tokens": [
          "<s>"
        ]
      }
    }
  },
  "decoder": {
    "type": "Sequence",
    "decoders": [
      {
        "type": "Replace",
        "pattern": {
          "String": "▁"
        },
        "content": " "
      },
      {
        "type": "ByteFallback"
      },
      {
        "type": "Fuse"
      },
      {
        "type": "Strip",
        "content": " ",
        "start": 1,
        "stop": 0
      }
    ]
  },
  "model": {
    "type": "Unigram",
    "unk_id": 0,
    "vocab": [
      [
        "<unk>",
        0.0
      ],
      [
        "<s>",
        0.0
      ],
      [
        "</s>",
        0.0
      ],
      [
        "<pad>",
        0.0
      ],
      [
        "<|im_start|>",
        0.0
      ],
      [
        "<|im_end|>",
        0.0
      ],
      [
        "<|im_sp_00|>",
        0.0
      ],
      [
        "<|im_sp_01|>",
        0.0
      ],
      [
        "<|im_sp_02|>",
        0.0
      ],
      [
        "<|im_sp_03|>",
        0.0
      ],
      [
        "<|im_sp_04|>",
        0.0
      ],
      [
        "<|im_sp_05|>",
        0.0
      ],
      [
        "<|im_sp_06|>",
        0.0
      ],
      [
        "<|im_sp_07|>",
        0.0
      ],
      [
        "<|im_sp_08|>",
        0.0
      ],
      [
        "<|im_sp_09|>",
        0.0
      ],
      [
        "<|im_sp_10|>",
        0.0
      ],
      [
        "<|im_sp_11|>",
        0.0
      ],
      [
        "<|im_sp_12|>",
        0.0
      ],
      [
        "<|im_sp_13|>",
        0.0
      ],
      [
        "<|im_sp_14|>",
        0.0
      ],
      [
        "<|im_sp_15|>",
        0.0
      ],
      [
        "<|im_sp_16|>",
        0.0
      ],
      [
        "<|im_sp_17|>",
        0.0
      ],
      [
        "<|im_sp_18|>",
        0.0
      ],
      [
        "<|im_sp_19|>",
        0.0
      ],
      [
        "<|im_sp_20|>",
        0.0
      ],
      [
        "<|im_sp_21|>",
        0.0
      ],
      [
        "<|im_sp_22|>",
        0.0
      ],
      [
        "<|im_sp_23|>",
        0.0
      ],
      [
        "<|im_sp_24|>",
        0.0
      ],
      [
        "<|im_sp_25|>",
        0.0
      ],
      [
        "<|im_sp_26|>",
        0.0
      ],
      [
        "<|im_sp_27|>",
        0.0
      ],
      [
        "<|im_sp_28|>",
        0.0
      ],
      [
        "<|im_sp_29|>",
        0.0
      ],
      [
        "<|im_sp_30|>",
        0.0
      ],
      [
        "<|im_sp_31|>",
        0.0
      ],
      [
        "<|im_sp_32|>",
        0.0
      ],
      [
        "<|im_sp_33|>",
        0.0
      ],
      [
        "<|im_sp_34|>",
        0.0
      ],
      [
        "<|im_sp_35|>",
        0.0
      ],
      [
        "<|im_sp_36|>",
        0.0
      ],
      [
        "<|im_sp_37|>",
        0.0
      ],
      [
        "<|im_sp_38|>",
        0.0
      ],
      [
        "<|im_sp_39|>",
        0.0
      ],
      [
        "<|im_sp_40|>",
        0.0
      ],
      [
        "<|im_sp_41|>",
        0.0
      ],
      [
        "<|im_sp_42|>",
        0.0
      ],
      [
        "<|im_sp_43|>",
        0.0
      ],
      [
        "<|im_sp_44|>",
        0.0
      ],
      [
        "<|im_sp_45|>",
        0.0
      ],
      [
        "<|im_sp_46|>",
        0.0
      ],
      [
        "<|im_sp_47|>",
        0.0
      ],
      [
        "<|im_sp_48|>",
        0.0
      ],
      [
        "<|im_sp_49|>",
        0.0
      ],
      [
        "<|im_sp_50|>",
        0.0
      ],
      [
        "<|im_sp_51|>",
        0.0
      ],
      [
        "<|im_sp_52|>",
        0.0
      ],
      [
        "<|im_sp_53|>",
        0.0
      ],
      [
        "<|im_sp_54|>",
        0.0
      ],
      [
        "<|im_sp_55|>",
        0.0
      ],
      [
        "<|im_sp_56|>",
        0.0
      ],
      [
        "<|im_sp_57|>",
        0.0
      ],
      [
        "<|im_sp_58|>",
        0.0
      ],
      [
        "<|im_sp_59|>",
        0.0
      ],
      [
        "<|im_sp_60|>",
        0.0
      ],
      [
        "<|im_sp_61|>",
        0.0
      ],
      [
        "<|im_sp_62|>",
        0.0
      ],
      [
        "<|im_sp_63|>",
        0.0
      ],
      [
        "<|im_sp_64|>",
        0.0
      ],
      [
        "<|im_sp_65|>",
        0.0
      ],
      [
        "<|im_sp_66|>",
        0.0
      ],
      [
        "<|im_sp_67|>",
        0.0
      ],
      [
        "<|im_sp_68|>",
        0.0
      ],
      [
        "<|im_sp_69|>",
        0.0
      ],
      [
        "<|im_sp_70|>",
        0.0
      ],
      [
        "<|im_sp_71|>",
        0.0
      ],
      [
        "<|im_sp_72|>",
        0.0
      ],
      [
        "<|im_sp_73|>",
        0.0
      ],
      [
        "<|im_sp_74|>",
        0.0
      ],
      [
        "<|im_sp_75|>",
        0.0
      ],
      [
        "<|im_sp_76|>",
        0.0
      ],
      [
        "<|im_sp_77|>",
        0.0
      ],
      [
        "<|im_sp_78|>",
        0.0
      ],
      [
        "<|im_sp_79|>",
        0.0
      ],
      [
        "<|im_sp_80|>",
        0.0
      ],
      [
        "<|im_sp_81|>",
        0.0
      ],
      [
        "<|im_sp_82|>",
        0.0
      ],
      [
        "<|im_sp_83|>",
        0.0
      ],
      [
        "<|im_sp_84|>",
        0.0
      ],
      [
        "<|im_sp_85|>",
        0.0
      ],
      [
        "<|im_sp_86|>",
        0.0
      ],
      [
        "<|im_sp_87|>",
        0.0
      ],
      [
        "<|im_sp_88|>",
        0.0
      ],
      [
        "<|im_sp_89|>",
        0.0
      ],
      [
        "<|im_sp_90|>",
        0.0
      ],
      [
        "<|im_sp_91|>",
        0.0
      ],
      [
        "<|im_sp_92|>",
        0.0
      ],
      [
        "<|im_sp_93|>",
        0.0
      ],
      [
        "<|im_sp_94|>",
        0.0
      ],
      [
        "<|im_sp_95|>",
        0.0
      ],
      [
        "<|im_sp_96|>",
        0.0
      ],
      [
        "<|im_sp_97|>",
        0.0
      ],
      [
        "<|im_sp_98|>",
        0.0
      ],
      [
        "<|im_sp_99|>",
        0.0
      ],
      [
        "<0x00>",
        0.0
      ],
      [
        "<0x01>",
        0.0
      ],
      [
        "<0x02>",
        0.0
      ],
      [
        "<0x03>",
        0.0
      ],
      [
        "<0x04>",
        0.0
      ],
      [
        "<0x05>",
        0.0
      ],
      [
        "<0x06>",
        0.0
      ],
      [
        "<0x07>",
        0.0
      ],
      [
        "<0x08>",
        0.0
      ],
      [
        "<0x09>",
        0.0
      ],
      [
        "\n",
        0.0
      ],
      [
        "<0x0B>",
        0.0
      ],
      [
        "<0x0C>",
        0.0
      ],
      [
        "<0x0D>",
        0.0
      ],
      [
        "<0x0E>",
        0.0
      ],
      [
        "<0x0F>",
        0.0
      ],
      [
        "<0x10>",
        0.0
      ],
      [
        "<0x11>",
        0.0
      ],
      [
        "<0x12>",
        0.0
      ],
      [
        "<0x13>",
        0.0
      ],
      [
        "<0x14>",
        0.0
      ],
      [
        "<0x15>",
        0.0
      ],
      [
        "<0x16>",
        0.0
      ],
      [
        "<0x17>",
        0.0
      ],
      [
        "<0x18>",
        0.0
      ],
      [
        "<0x19>",
        0.0
      ],
      [
        "<0x1A>",
        0.0
      ],
      [
        "<0x1B>",
        0.0
      ],
      [
        "<0x1C>",
        0.0
      ],
      [
        "<0x1D>",
        0.0
      ],
      [
        "<0x1E>",
        0.0
      ],
      [
        "<0x1F>",
        0.0
      ],
      [
        "<0x20>",
        0.0
      ],
      [
        "<0x21>",
        0.0
      ],
      [
        "<0x22>",
        0.0
      ],
      [
        "<0x23>",
        0.0
      ],
      [
        "<0x24>",
        0.0
      ],
      [
        "<0x25>",
        0.0
      ],
      [
        "<0x26>",
        0.0
      ],
      [
        "<0x27>",
        0.0
      ],
      [
        "<0x28>",
        0.0
      ],
      [
        "<0x29>",
        0.0
      ],
      [
        "<0x2A>",
        0.0
      ],
      [
        "<0x2B>",
        0.0
      ],
      [
        "<0x2C>",
        0.0
      ],
      [
        "<0x2D>",
        0.0
      ],
      [
        "<0x2E>",
        0.0
      ],
      [
        "<0x2F>",
        0.0
      ],
      [
        "<0x30>",
        0.0
      ],
      [
        "<0x31>",
        0.0
      ],
      [
        "<0x32>",
        0.0
      ],
      [
        "<0x33>",
        0.0
      ],
      [
        "<0x34>",
        0.0
      ],
      [
        "<0x35>",
        0.0
      ],
      [
        "<0x36>",
        0.0
      ],
      [
        "<0x37>",
        0.0
      ],
      [
        "<0x38>",
        0.0
      ],
      [
        "<0x39>",
        0.0
      ],
      [
        "<0x3A>",
        0.0
      ],
      [
        "<0x3B>",
        0.0
      ],
      [
        "<0x3C>",
        0.0
      ],
      [
        "<0x3D>",
        0.0
      ],
      [
        "<0x3E>",
        0.0
      ],
      [
        "<0x3F>",
        0.0
      ],
      [
        "<0x40>",
        0.0
      ],
      [
        "<0x41>",
        0.0
      ],
      [
        "<0x42>",
        0.0
      ],
      [
        "<0x43>",
        0.0
      ],
      [
        "<0x44>",
        0.0
      ],
      [
        "<0x45>",
        0.0
      ],
      [
        "<0x46>",
        0.0
      ],
      [
        "<0x47>",
        0.0
      ],
      [
        "<0x48>",
        0.0
      ],
      [
        "<0x49>",
        0.0
      ],
      [
        "<0x4A>",
        0.0
      ],
      [
        "<0x4B>",
        0.0
      ],
      [
        "<0x4C>",
        0.0
      ],
      [
        "<0x4D>",
        0.0
      ],
      [
        "<0x4E>",
        0.0
      ],
      [
        "<0x4F>",
        0.0
      ],
      [
        "<0x50>",
        0.0
      ],
      [
        "<0x51>",
        0.0
      ],
      [
        "<0x52>",
        0.0
      ],
      [
        "<0x53>",
        0.0
      ],
      [
        "<0x54>",
        0.0
      ],
      [
        "<0x55>",
        0.0
      ],
      [
        "<0x56>",
        0.0
      ],
      [
        "<0x57>",
        0.0
      ],
      [
        "<0x58>",
        0.0
      ],
      [
        "<0x59>",
        0.0
      ],
      [
        "<0x5A>",
        0.0
      ],
      [
        "<0x5B>",
        0.0
      ],
      [
        "<0x5C>",
        0.0
      ],
      [
        "<0x5D>",
        0.0
      ],
      [
        "<0x5E>",
        0.0
      ],
      [
        "<0x5F>",
        0.0
      ],
      [
        "<0x60>",
        0.0
      ],
      [
        "<0x61>",
        0.0
      ],
      [
        "<0x62>",
        0.0
      ],
      [
        "<0x63>",
        0.0
      ],
      [
        "<0x64>",
        0.0
      ],
      [
        "<0x65>",
        0.0
      ],
      [
        "<0x66>",
        0.0
      ],
      [
        "<0x67>",
        0.0
      ],
      [
        "<0x68>",
        0.0
      ],
      [
        "<0x69>",
        0.0
      ],
      [
        "<0x6A>",
        0.0
      ],
      [
        "<0x6B>",
        0.0
      ],
      [
        "<0x6C>",
        0.0
      ],
      [
        "<0x6D>",
        0.0
      ],
      [
        "<0x6E>",
        0.0
      ],
      [
        "<0x6F>",
        0.0
      ],
      [
        "<0x70>",
        0.0
      ],
      [
        "<0x71>",
        0.0
      ],
      [
        "<0x72>",
        0.0
      ],
      [
        "<0x73>",
        0.0
      ],
      [
        "<0x74>",
        0.0
      ],
      [
        "<0x75>",
        0.0
      ],
      [
        "<0x76>",
        0.0
      ],
      [
        "<0x77>",
        0.0
      ],
      [
        "<0x78>",
        0.0
      ],
      [
        "<0x79>",
        0.0
      ],
      [
        "<0x7A>",
        0.0
      ],
      [
        "<0x7B>",
        0.0
      ],
      [
        "<0x7C>",
        0.0
      ],
      [
        "<0x7D>",
        0.0
      ],
      [
        "<0x7E>",
        0.0
      ],
      [
        "<0x7F>",
        0.0
      ],
      [
        "<0x80>",
        0.0
      ],
      [
        "<0x81>",
        0.0
      ],
      [
        "<0x82>",
        0.0
      ],
      [
        "<0x83>",
        0.0
      ],
      [
        "<0x84>",
        0.0
      ],
      [
        "<0x85>",
        0.0
      ],
      [
        "<0x86>",
        0.0
      ],
      [
        "<0x87>",
        0.0
      ],
      [
        "<0x88>",
        0.0
      ],
      [
        "<0x89>",
        0.0
      ],
      [
        "<0x8A>",
        0.0
      ],
      [
        "<0x8B>",
        0.0
      ],
      [
        "<0x8C>",
        0.0
      ],
      [
        "<0x8D>",
        0.0
      ],
      [
        "<0x8E>",
        0.0
      ],
      [
        "<0x8F>",
        0.0
      ],
      [
        "<0x90>",
        0.0
      ],
      [
        "<0x91>",
        0.0
      ],
      [
        "<0x92>",
        0.0
      ],
      [
        "<0x93>",
        0.0
      ],
      [
        "<0x94>",
        0.0
      ],
      [
        "<0x95>",
        0.0
      ],
      [
        "<0x96>",
        0.0
      ],
      [
        "<0x97>",
        0.0
      ],
      [
        "<0x98>",
        0.0
      ],
      [
        "<0x99>",
        0.0
      ],
      [
        "<0x9A>",
        0.0
      ],
      [
        "<0x9B>",
        0.0
      ],
      [
        "<0x9C>",
        0.0
      ],
      [
        "<0x9D>",
        0.0
      ],
      [
        "<0x9E>",
        0.0
      ],
      [
        "<0x9F>",
        0.0
      ],
      [
        "<0xA0>",
        0.0
      ],
      [
        "<0xA1>",
        0.0
      ],
      [
        "<0xA2>",
        0.0
      ],
      [
        "<0xA3>",
        0.0
      ],
      [
        "<0xA4>",
        0.0
      ],
      [
        "<0xA5>",
        0.0
      ],
      [
        "<0xA6>",
        0.0
      ],
      [
        "<0xA7>",
        0.0
      ],
      [
        "<0xA8>",
        0.0
      ],
      [
        "<0xA9>",
        0.0
      ],
      [
        "<0xAA>",
        0.0
      ],
      [
        "<0xAB>",
        0.0
      ],
      [
        "<0xAC>",
        0.0
      ],
      [
        "<0xAD>",
        0.0
      ],
      [
        "<0xAE>",
        0.0
      ],
      [
        "<0xAF>",
        0.0
      ],
      [
        "<0xB0>",
        0.0
      ],
      [
        "<0xB1>",
        0.0
      ],
      [
        "<0xB2>",
        0.0
      ],
      [
        "<0xB3>",
        0.0
      ],
      [
        "<0xB4>",
        0.0
      ],
      [
        "<0xB5>",
        0.0
      ],
      [
        "<0xB6>",
        0.0
      ],
      [
        "<0xB7>",
        0.0
      ],
      [
        "<0xB8>",
        0.0
      ],
      [
        "<0xB9>",
        0.0
      ],
      [
        "<0xBA>",
        0.0
      ],
      [
        "<0xBB>",
        0.0
      ],
      [
        "<0xBC>",
        0.0
      ],
      [
        "<0xBD>",
        0.0
      ],
      [
        "<0xBE>",
        0.0
      ],
      [
        "<0xBF>",
        0.0
      ],
      [
        "<0xC0>",
        0.0
      ],
      [
        "<0xC1>",
        0.0
      ],
      [
        "<0xC2>",
        0.0
      ],
      [
        "<0xC3>",
        0.0
      ],
      [
        "<0xC4>",
        0.0
      ],
      [
        "<0xC5>",
        0.0
      ],
      [
        "<0xC6>",
        0.0
      ],
      [
        "<0xC7>",
        0.0
      ],
      [
        "<0xC8>",
        0.0
      ],
      [
        "<0xC9>",
        0.0
      ],
      [
        "<0xCA>",
        0.0
      ],
      [
        "<0xCB>",
        0.0
      ],
      [
        "<0xCC>",
        0.0
      ],
      [
        "<0xCD>",
        0.0
      ],
      [
        "<0xCE>",
        0.0
      ],
      [
        "<0xCF>",
        0.0
      ],
      [
        "<0xD0>",
        0.0
      ],
      [
        "<0xD1>",
        0.0
      ],
      [
        "<0xD2>",
        0.0
      ],
      [
        "<0xD3>",
        0.0
      ],
      [
        "<0xD4>",
        0.0
      ],
      [
        "<0xD5>",
        0.0
      ],
      [
        "<0xD6>",
        0.0
      ],
      [
        "<0xD7>",
        0.0
      ],
      [
        "<0xD8>",
        0.0
      ],
      [
        "<0xD9>",
        0.0
      ],
      [
        "<0xDA>",
        0.0
      ],
      [
        "<0xDB>",
        0.0
      ],
      [
        "<0xDC>",
        0.0
      ],
      [
        "<0xDD>",
        0.0
      ],
      [
        "<0xDE>",
        0.0
      ],
      [
        "<0xDF>",
        0.0
      ],
      [
        "<0xE0>",
        0.0
      ],
      [
        "<0xE1>",
        0.0
      ],
      [
        "<0xE2>",
        0.0
      ],
      [
        "<0xE3>",
        0.0
      ],
      [
        "<0xE4>",
        0.0
      ],
      [
        "<0xE5>",
        0.0
      ],
      [
        "<0xE6>",
        0.0
      ],
      [
        "<0xE7>",
        0.0
      ],
      [
        "<0xE8>",
        0.0
      ],
      [
        "<0xE9>",
        0.0
      ],
      [
        "<0xEA>",
        0.0
      ],
      [
        "<0xEB>",
        0.0
      ],
      [
        "<0xEC>",
        0.0
      ],
      [
        "<0xED>",
        0.0
      ],
      [
        "<0xEE>",
        0.0
      ],
      [
        "<0xEF>",
        0.0
      ],
      [
        "<0xF0>",
        0.0
      ],
      [
        "<0xF1>",
        0.0
      ],
      [
        "<0xF2>",
        0.0
      ],
      [
        "<0xF3>",
        0.0
      ],
      [
        "<0xF4>",
        0.0
      ],
      [
        "<0xF5>",
        0.0
      ],
      [
        "<0xF6>",
        0.0
      ],
      [
        "<0xF7>",
        0.0
      ],
      [
        "<0xF8>",
        0.0
      ],
      [
        "<0xF9>",
        0.0
      ],
      [
        "<0xFA>",
        0.0
      ],
      [
        "<0xFB>",
        0.0
      ],
      [
        "<0xFC>",
        0.0
      ],
      [
        "<0xFD>",
        0.0
      ],
      [
        "<0xFE>",
        0.0
      ],
      [
        "<0xFF>",
        0.0
      ],
      [
        "▁",
        -3.198336601257324
      ],
      [
        ",",
        -3.4377856254577637
      ],
      [
        ".",
        -3.5112924575805664
      ],
      [
        "s",
        -3.862491607666016
      ],
      [
        "1",
        -4.381321907043457
      ],
      [
        "0",
        -4.546067714691162
      ],
      [
        "▁the",
        -4.558809280395508
      ],
      [
        "▁de",
        -4.633325576782227
      ],
      [
        "2",
        -4.707272529602051
      ],
      [
        "▁a",
        -4.720740795135498
      ],
      [
        "e",
        -4.825904846191406
      ],
      [
        "-",
        -4.904508590698242
      ],
      [
        "a",
        -5.021977424621582
      ],
      [
        "▁of",
        -5.0478410720825195
      ],
      [
        "▁in",
        -5.055970668792725
      ],
      [
        "9",
        -5.136202812194824
      ],
      [
        "▁and",
        -5.193325519561768
      ],
      [
        "▁(",
        -5.208774566650391
      ],
      [
        "▁to",
        -5.288547992706299
      ],
      [
        "i",
        -5.350742816925049
      ],
      [
        "3",
        -5.45751953125
      ],
      [
        "5",
        -5.5312042236328125
      ],
      [
        "en",
        -5.54197883605957
      ],
      [
        "t",
        -5.545844554901123
      ],
      [
        "4",
        -5.585561752319336
      ],
      [
        ")",
        -5.586130619049072
      ],
      [
        "8",
        -5.590737342834473
      ],
      [
        "▁la",
        -5.626096725463867
      ],
      [
        ":",
        -5.679298400878906
      ],
      [
        "6",
        -5.72959041595459
      ],
      [
        "7",
        -5.758188247680664
      ],
      [
        "o",
        -5.762664318084717
      ],
      [
        "'",
        -5.798577308654785
      ],
      [
        "n",
        -5.86702823638916
      ],
      [
        "▁en",
        -5.871580600738525
      ],
      [
        "u",
        -5.897631645202637
      ],
      [
        "▁-",
        -5.908660411834717
      ],
      [
        "▁is",
        -5.9166436195373535
      ],
      [
        "y",
        -6.06667423248291
      ],
      [
        "er",
        -6.076737880706787
      ],
      [
        "▁for",
        -6.16532564163208
      ],
      [
        "’",
        -6.278181076049805
      ],
      [
        " ",
        -6.31730842590332
      ],
      [
        "▁on",
        -6.328206539154053
      ],
      [
        "▁e",
        -6.359709739685059
      ],
      [
        "▁i",
        -6.372910499572754
      ],
      [
        "es",
        -6.377684593200684
      ],
      [
        "▁un",
        -6.392178058624268
      ],
      [
        "r",
        -6.414081573486328
      ],
      [
        "▁The",
        -6.421346664428711
      ],
      [
        "▁que",
        -6.422607898712158
      ],
      [
        "d",
        -6.423483371734619
      ],
      [
        "m",
        -6.4522013664245605
      ],
      [
        "▁that",
        -6.456743240356445
      ],
      [
        "▁A",
        -6.473976135253906
      ],
      [
        "▁se",
        -6.476328372955322
      ],
      [
        "▁na",
        -6.497526168823242
      ],
      [
        "▁di",
        -6.522396564483643
      ],
      [
        "▁with",
        -6.549121856689453
      ],
      [
        "▁o",
        -6.562118053436279
      ],
      [
        "▁was",
        -6.563948154449463
      ],
      [
        "▁be",
        -6.606044769287109
      ],
      [
        "▁do",
        -6.644394397735596
      ],
      [
        "▁der",
        -6.655908107757568
      ],
      [
        "▁as",
        -6.656604766845703
      ],
      [
        "▁I",
        -6.6588616371154785
      ],
      [
        "ing",
        -6.662569522857666
      ],
      [
        "ed",
        -6.664310455322266
      ],
      [
        "▁el",
        -6.675205230712891
      ],
      [
        "▁le",
        -6.676362037658691
      ],
      [
        "▁l",
        -6.690423488616943
      ],
      [
        "▁y",
        -6.698671340942383
      ],
      [
        "▁und",
        -6.731420993804932
      ],
      [
        "▁an",
        -6.74368953704834
      ],
      [
        "/",
        -6.7481770515441895
      ],
      [
        "▁die",
        -6.753056049346924
      ],
      [
        "▁et",
        -6.756885051727295
      ],
      [
        "▁by",
        -6.780118465423584
      ],
      [
        "▁at",
        -6.816143035888672
      ],
      [
        "in",
        -6.850751876831055
      ],
      [
        "te",
        -6.892877578735352
      ],
      [
        "▁v",
        -6.89870548248291
      ],
      [
        "▁–",
        -6.910155296325684
      ],
      [
        "▁\"",
        -6.911101818084717
      ],
      [
        ";",
        -6.918376445770264
      ],
      [
        "re",
        -6.939615249633789
      ],
      [
        "▁d",
        -6.948840141296387
      ],
      [
        ").",
        -6.951766490936279
      ],
      [
        "▁are",
        -6.960963726043701
      ],
      [
        "▁del",
        -6.968145370483398
      ],
      [
        "),",
        -6.985676288604736
      ],
      [
        "▁it",
        -7.003193378448486
      ],
      [
        "▁des",
        -7.009181022644043
      ],
      [
        "▁In",
        -7.022799015045166
      ],
      [
        "▁je",
        -7.025106430053711
      ],
      [
        "▁z",
        -7.043771266937256
      ],
      [
        "▁w",
        -7.050986289978027
      ],
      [
        "▁from",
        -7.056118965148926
      ],
      [
        "▁con",
        -7.075034141540527
      ],
      [
        "▁or",
        -7.1110663414001465
      ],
      [
        "▁da",
        -7.11323356628418
      ],
      [
        "l",
        -7.114108562469482
      ],
      [
        "▁à",
        -7.123424053192139
      ],
      [
        "k",
        -7.127784729003906
      ],
      [
        "▁•",
        -7.141044616699219
      ],
      [
        "▁van",
        -7.141511917114258
      ],
      [
        "▁S",
        -7.155874252319336
      ],
      [
        "de",
        -7.171265125274658
      ],
      [
        "to",
        -7.180381774902344
      ],
      [
        "?",
        -7.186762809753418
      ],
      [
        "▁no",
        -7.196242809295654
      ],
      [
        "al",
        -7.205625057220459
      ],
      [
        "ne",
        -7.212823867797852
      ],
      [
        "ar",
        -7.220877170562744
      ],
      [
        "▁para",
        -7.235089778900147
      ],
      [
        "▁на",
        -7.235988140106201
      ],
      [
        "▁du",
        -7.2450079917907715
      ],
      [
        "\"",
        -7.251897811889648
      ],
      [
        "ta",
        -7.256985664367676
      ],
      [
        "▁you",
        -7.25706958770752
      ],
      [
        "z",
        -7.261935710906982
      ],
      [
        "▁il",
        -7.277185440063477
      ],
      [
        "as",
        -7.289100646972656
      ],
      [
        "an",
        -7.316822052001953
      ],
      [
        "na",
        -7.317712783813477
      ],
      [
        "▁al",
        -7.321054458618164
      ],
      [
        "le",
        -7.34527063369751
      ],
      [
        "▁this",
        -7.358105182647705
      ],
      [
        "▁les",
        -7.365836620330811
      ],
      [
        "▁not",
        -7.366427421569824
      ],
      [
        "et",
        -7.379498481750488
      ],
      [
        "▁den",
        -7.382689952850342
      ],
      [
        "▁una",
        -7.384347438812256
      ],
      [
        "▁su",
        -7.390216827392578
      ],
      [
        "os",
        -7.392061233520508
      ],
      [
        "▁los",
        -7.395145893096924
      ],
      [
        "▁ja",
        -7.398451328277588
      ],
      [
        "▁can",
        -7.401806354522705
      ],
      [
        "▁La",
        -7.4048967361450195
      ],
      [
        "em",
        -7.408555507659912
      ],
      [
        "▁have",
        -7.413050174713135
      ],
      [
        "b",
        -7.4136834144592285
      ],
      [
        "c",
        -7.441444396972656
      ],
      [
        "▁per",
        -7.462138652801514
      ],
      [
        "g",
        -7.463535785675049
      ],
      [
        "▁por",
        -7.479301452636719
      ],
      [
        "us",
        -7.481444835662842
      ],
      [
        "ly",
        -7.48228645324707
      ],
      [
        "no",
        -7.494714260101318
      ],
      [
        "ja",
        -7.5032782554626465
      ],
      [
        "é",
        -7.508842945098877
      ],
      [
        "ti",
        -7.509376049041748
      ],
      [
        "on",
        -7.525915622711182
      ],
      [
        "▁za",
        -7.531126022338867
      ],
      [
        "h",
        -7.53322172164917
      ],
      [
        "▁C",
        -7.538870334625244
      ],
      [
        "▁von",
        -7.543017864227295
      ],
      [
        "▁po",
        -7.553032875061035
      ],
      [
        "ch",
        -7.56825590133667
      ],
      [
        "▁so",
        -7.5740966796875
      ],
      [
        "▁και",
        -7.576432704925537
      ],
      [
        "▁es",
        -7.583329200744629
      ],
      [
        "p",
        -7.596767902374268
      ],
      [
        "S",
        -7.6044487953186035
      ],
      [
        "▁were",
        -7.604657173156738
      ],
      [
        "▁och",
        -7.609020709991455
      ],
      [
        "▁het",
        -7.609434127807617
      ],
      [
        "da",
        -7.6255693435668945
      ],
      [
        "▁“",
        -7.630052089691162
      ],
      [
        "▁een",
        -7.63092041015625
      ],
      [
        "▁which",
        -7.63165283203125
      ],
      [
        "j",
        -7.634147167205811
      ],
      [
        "ς",
        -7.639448642730713
      ],
      [
        "ni",
        -7.640807151794434
      ],
      [
        "▁De",
        -7.642554759979248
      ],
      [
        "▁„",
        -7.664429187774658
      ],
      [
        "ul",
        -7.676055431365967
      ],
      [
        "ie",
        -7.677624702453613
      ],
      [
        "se",
        -7.68635892868042
      ],
      [
        "▁M",
        -7.692781448364258
      ],
      [
        "▁L",
        -7.698636531829834
      ],
      [
        "▁has",
        -7.69909143447876
      ],
      [
        "▁si",
        -7.699538707733154
      ],
      [
        "▁he",
        -7.700116634368896
      ],
      [
        "▁O",
        -7.707555770874023
      ],
      [
        "▁B",
        -7.7102952003479
      ],
      [
        "is",
        -7.7211761474609375
      ],
      [
        "▁em",
        -7.725729942321777
      ],
      [
        "▁er",
        -7.72628116607666
      ],
      [
        "▁u",
        -7.726590633392334
      ],
      [
        "A",
        -7.735096454620361
      ],
      [
        "▁we",
        -7.7368597984313965
      ],
      [
        "▁all",
        -7.738875865936279
      ],
      [
        "▁V",
        -7.739616394042969
      ],
      [
        "▁zu",
        -7.743314266204834
      ],
      [
        "–",
        -7.746062278747559
      ],
      [
        "f",
        -7.748622417449951
      ],
      [
        "▁te",
        -7.749099254608154
      ],
      [
        "▁che",
        -7.752478122711182
      ],
      [
        "▁um",
        -7.757390975952148
      ],
      [
        "▁sa",
        -7.761855602264404
      ],
      [
        "▁P",
        -7.764101982116699
      ],
      [
        "il",
        -7.768735408782959
      ],
      [
        "▁est",
        -7.77750301361084
      ],
      [
        "▁[",
        -7.785444736480713
      ],
      [
        "la",
        -7.788830757141113
      ],
      [
        "▁re",
        -7.790428638458252
      ],
      [
        "▁и",
        -7.799111366271973
      ],
      [
        "▁του",
        -7.799337387084961
      ],
      [
        "▁his",
        -7.799900054931641
      ],
      [
        "C",
        -7.800105094909668
      ],
      [
        "v",
        -7.813264846801758
      ],
      [
        "í",
        -7.816348075866699
      ],
      [
        ". ",
        -7.817756175994873
      ],
      [
        "▁E",
        -7.819248199462891
      ],
      [
        "it",
        -7.821573734283447
      ],
      [
        "ce",
        -7.8224639892578125
      ],
      [
        "▁but",
        -7.824963569641113
      ],
      [
        "ra",
        -7.826511859893799
      ],
      [
        "”",
        -7.835672378540039
      ],
      [
        "▁mit",
        -7.840283870697021
      ],
      [
        "▁par",
        -7.843750476837158
      ],
      [
        "▁D",
        -7.852203845977783
      ],
      [
        "▁ne",
        -7.855286598205566
      ],
      [
        "▁T",
        -7.857339382171631
      ],
      [
        "▁their",
        -7.862258434295654
      ],
      [
        "▁also",
        -7.862922191619873
      ],
      [
        "▁▁▁▁",
        -7.863797187805176
      ],
      [
        "do",
        -7.867203712463379
      ],
      [
        "%",
        -7.873500347137451
      ],
      [
        "x",
        -7.875204086303711
      ],
      [
        "▁som",
        -7.876428127288818
      ],
      [
        "▁will",
        -7.878079414367676
      ],
      [
        "▁im",
        -7.893497467041016
      ],
      [
        "▁op",
        -7.896103858947754
      ],
      [
        "at",
        -7.897366046905518
      ],
      [
        "or",
        -7.902425289154053
      ],
      [
        "ka",
        -7.915310382843018
      ],
      [
        "]",
        -7.91615104675293
      ],
      [
        "ia",
        -7.920491695404053
      ],
      [
        "▁Le",
        -7.929353713989258
      ],
      [
        "▁como",
        -7.932481288909912
      ],
      [
        "▁It",
        -7.933167934417725
      ],
      [
        "▁das",
        -7.938769817352295
      ],
      [
        "mi",
        -7.939950942993164
      ],
      [
        "!",
        -7.943881511688232
      ],
      [
        "▁W",
        -7.945677280426025
      ],
      [
        "▁your",
        -7.950272560119629
      ],
      [
        "li",
        -7.956315517425537
      ],
      [
        "▁one",
        -7.964890003204346
      ],
      [
        "▁K",
        -7.97479248046875
      ],
      [
        "▁med",
        -7.975225448608398
      ],
      [
        "st",
        -7.977060317993164
      ],
      [
        "ve",
        -7.97847843170166
      ],
      [
        "▁od",
        -7.992748737335205
      ],
      [
        "▁ist",
        -7.993062019348144
      ],
      [
        "▁He",
        -7.996309757232666
      ],
      [
        "ă",
        -8.000809669494629
      ],
      [
        "th",
        -8.002021789550781
      ],
      [
        "om",
        -8.004582405090332
      ],
      [
        "ten",
        -8.005406379699707
      ],
      [
        "▁av",
        -8.006818771362305
      ],
      [
        "▁pour",
        -8.008434295654297
      ],
      [
        "un",
        -8.009360313415527
      ],
      [
        "▁las",
        -8.012158393859863
      ],
      [
        "▁En",
        -8.021334648132324
      ],
      [
        "▁k",
        -8.022220611572266
      ],
      [
        "▁és",
        -8.022771835327148
      ],
      [
        "▁az",
        -8.025407791137695
      ],
      [
        "▁more",
        -8.025495529174805
      ],
      [
        "▁το",
        -8.025525093078613
      ],
      [
        "▁в",
        -8.026968002319336
      ],
      [
        "ma",
        -8.027466773986816
      ],
      [
        "va",
        -8.028478622436523
      ],
      [
        "▁com",
        -8.039361000061035
      ],
      [
        "▁att",
        -8.041788101196289
      ],
      [
        "▁F",
        -8.0427885055542
      ],
      [
        "▁og",
        -8.0438871383667
      ],
      [
        "▁în",
        -8.0478515625
      ],
      [
        "▁é",
        -8.050542831420898
      ],
      [
        "el",
        -8.053060531616211
      ],
      [
        "▁της",
        -8.054463386535645
      ],
      [
        "▁over",
        -8.056096076965332
      ],
      [
        "ó",
        -8.05923843383789
      ],
      [
        "▁om",
        -8.063529014587402
      ],
      [
        "ci",
        -8.066847801208496
      ],
      [
        "ą",
        -8.072105407714844
      ],
      [
        "je",
        -8.074827194213867
      ],
      [
        "▁è",
        -8.076704978942871
      ],
      [
        "▁dans",
        -8.078067779541016
      ],
      [
        "▁ir",
        -8.083024024963379
      ],
      [
        "▁på",
        -8.086405754089355
      ],
      [
        "▁R",
        -8.087502479553223
      ],
      [
        "be",
        -8.095755577087402
      ],
      [
        "▁une",
        -8.097241401672363
      ],
      [
        "(",
        -8.09807300567627
      ],
      [
        "▁și",
        -8.099141120910645
      ],
      [
        "▁är",
        -8.105051040649414
      ],
      [
        "▁they",
        -8.108185768127441
      ],
      [
        "▁m",
        -8.108201026916504
      ],
      [
        "▁ha",
        -8.117201805114746
      ],
      [
        "▁auf",
        -8.12209415435791
      ],
      [
        "▁This",
        -8.12221908569336
      ],
      [
        "▁G",
        -8.126161575317383
      ],
      [
        "и",
        -8.1282958984375
      ],
      [
        "▁had",
        -8.128579139709473
      ],
      [
        "▁El",
        -8.132161140441895
      ],
      [
        "ek",
        -8.1327543258667
      ],
      [
        "▁für",
        -8.1378755569458
      ],
      [
        "ge",
        -8.14130973815918
      ],
      [
        "▁за",
        -8.153884887695312
      ],
      [
        "▁να",
        -8.161303520202637
      ],
      [
        "▁time",
        -8.170781135559082
      ],
      [
        "▁als",
        -8.179497718811035
      ],
      [
        "B",
        -8.182223320007324
      ],
      [
        "▁U",
        -8.185506820678711
      ],
      [
        "▁ein",
        -8.18558120727539
      ],
      [
        "_",
        -8.186407089233398
      ],
      [
        "▁au",
        -8.187267303466797
      ],
      [
        "▁pro",
        -8.19167709350586
      ],
      [
        "▁other",
        -8.206046104431152
      ],
      [
        "▁N",
        -8.209266662597656
      ],
      [
        "▁qui",
        -8.212292671203613
      ],
      [
        "ou",
        -8.213994026184082
      ],
      [
        "▁от",
        -8.214971542358398
      ],
      [
        "á",
        -8.217048645019531
      ],
      [
        "▁Die",
        -8.21837043762207
      ],
      [
        "▁been",
        -8.21839427947998
      ],
      [
        "▁sur",
        -8.218785285949707
      ],
      [
        "▁H",
        -8.222877502441406
      ],
      [
        "▁lo",
        -8.23256778717041
      ],
      [
        "lo",
        -8.23304557800293
      ],
      [
        "а",
        -8.234776496887207
      ],
      [
        "w",
        -8.234825134277344
      ],
      [
        "▁her",
        -8.23742961883545
      ],
      [
        "▁ver",
        -8.242227554321289
      ],
      [
        "▁who",
        -8.247001647949219
      ],
      [
        "D",
        -8.248444557189941
      ],
      [
        "me",
        -8.251810073852539
      ],
      [
        "▁pre",
        -8.254897117614746
      ],
      [
        "man",
        -8.259967803955078
      ],
      [
        "▁Il",
        -8.260834693908691
      ],
      [
        "▁non",
        -8.261756896972656
      ],
      [
        "ov",
        -8.26931095123291
      ],
      [
        "▁för",
        -8.281709671020508
      ],
      [
        "den",
        -8.284663200378418
      ],
      [
        "▁eine",
        -8.285140037536621
      ],
      [
        "▁its",
        -8.286026000976562
      ],
      [
        "▁την",
        -8.286916732788086
      ],
      [
        "est",
        -8.287918090820312
      ],
      [
        "▁af",
        -8.290702819824219
      ],
      [
        "ku",
        -8.291097640991211
      ],
      [
        "▁▁▁",
        -8.292032241821289
      ],
      [
        "ca",
        -8.296162605285645
      ],
      [
        "▁first",
        -8.302067756652832
      ],
      [
        "▁p",
        -8.302830696105957
      ],
      [
        "ga",
        -8.308443069458008
      ],
      [
        "▁me",
        -8.308609962463379
      ],
      [
        "▁dem",
        -8.309501647949219
      ],
      [
        "▁up",
        -8.312121391296387
      ],
      [
        "▁е",
        -8.312702178955078
      ],
      [
        "▁się",
        -8.314414024353027
      ],
      [
        "▁about",
        -8.31482982635498
      ],
      [
        "▁ ",
        -8.316239356994629
      ],
      [
        "ment",
        -8.32089900970459
      ],
      [
        "▁uma",
        -8.322637557983398
      ],
      [
        "▁two",
        -8.328201293945312
      ],
      [
        "ho",
        -8.330595970153809
      ],
      [
        "▁della",
        -8.334149360656738
      ],
      [
        "ation",
        -8.334915161132812
      ],
      [
        "ba",
        -8.335875511169434
      ],
      [
        "▁Na",
        -8.337387084960938
      ],
      [
        "▁son",
        -8.352362632751465
      ],
      [
        "▁да",
        -8.354372024536133
      ],
      [
        "▁kan",
        -8.357146263122559
      ],
      [
        "▁J",
        -8.357924461364746
      ],
      [
        "▁when",
        -8.358494758605957
      ],
      [
        "▁met",
        -8.358865737915039
      ],
      [
        "▁out",
        -8.36147403717041
      ],
      [
        "▁ou",
        -8.369966506958008
      ],
      [
        "id",
        -8.375517845153809
      ],
      [
        "▁into",
        -8.375588417053223
      ],
      [
        "ki",
        -8.376352310180664
      ],
      [
        "▁To",
        -8.387384414672852
      ],
      [
        "▁Z",
        -8.387639045715332
      ],
      [
        "ów",
        -8.39219856262207
      ],
      [
        "▁με",
        -8.392560958862305
      ],
      [
        "▁από",
        -8.39322566986084
      ],
      [
        "E",
        -8.401876449584961
      ],
      [
        "▁sich",
        -8.403605461120605
      ],
      [
        "am",
        -8.408820152282715
      ],
      [
        "ej",
        -8.414831161499023
      ],
      [
        "▁voor",
        -8.417365074157715
      ],
      [
        "“",
        -8.41966438293457
      ],
      [
        "▁if",
        -8.427643775939941
      ],
      [
        "ndo",
        -8.428775787353516
      ],
      [
        "▁=",
        -8.429465293884277
      ],
      [
        "▁се",
        -8.43239688873291
      ],
      [
        "ach",
        -8.433009147644043
      ],
      [
        "ic",
        -8.433928489685059
      ],
      [
        "­",
        -8.434720993041992
      ],
      [
        "ant",
        -8.435128211975098
      ],
      [
        "▁than",
        -8.43576431274414
      ],
      [
        "ir",
        -8.440433502197266
      ],
      [
        "▁ma",
        -8.442253112792969
      ],
      [
        "▁&",
        -8.443085670471191
      ],
      [
        "▁os",
        -8.443743705749512
      ],
      [
        "▁We",
        -8.449172973632812
      ],
      [
        "▁man",
        -8.451037406921387
      ],
      [
        "▁ki",
        -8.454227447509766
      ],
      [
        "▁there",
        -8.45485782623291
      ],
      [
        "P",
        -8.461369514465332
      ],
      [
        "▁este",
        -8.466715812683105
      ],
      [
        "▁pa",
        -8.467338562011719
      ],
      [
        "▁c",
        -8.472424507141113
      ],
      [
        "co",
        -8.473036766052246
      ],
      [
        "▁would",
        -8.474408149719238
      ],
      [
        "▁Re",
        -8.477591514587402
      ],
      [
        "▁Se",
        -8.477846145629883
      ],
      [
        "▁co",
        -8.484350204467773
      ],
      [
        "▁cu",
        -8.487284660339355
      ],
      [
        "ur",
        -8.492114067077637
      ],
      [
        "ver",
        -8.493409156799316
      ],
      [
        "ro",
        -8.493691444396973
      ],
      [
        "▁am",
        -8.498257637023926
      ],
      [
        "α",
        -8.4999361038208
      ],
      [
        "ní",
        -8.50287914276123
      ],
      [
        "ke",
        -8.506346702575684
      ],
      [
        "ado",
        -8.506869316101074
      ],
      [
        "ä",
        -8.510770797729492
      ],
      [
        "ok",
        -8.516806602478027
      ],
      [
        "▁may",
        -8.518569946289062
      ],
      [
        "ko",
        -8.519261360168457
      ],
      [
        "▁such",
        -8.519513130187988
      ],
      [
        "K",
        -8.519754409790039
      ],
      [
        "▁only",
        -8.522867202758789
      ],
      [
        "I",
        -8.528903007507324
      ],
      [
        "um",
        -8.53201675415039
      ],
      [
        "ers",
        -8.532076835632324
      ],
      [
        "ny",
        -8.538349151611328
      ],
      [
        "▁с",
        -8.539358139038086
      ],
      [
        "M",
        -8.53986930847168
      ],
      [
        "▁An",
        -8.541916847229004
      ],
      [
        "▁ar",
        -8.54241943359375
      ],
      [
        "ę",
        -8.54353141784668
      ],
      [
        "im",
        -8.544332504272461
      ],
      [
        "▁my",
        -8.544515609741211
      ],
      [
        "▁some",
        -8.544585227966309
      ],
      [
        "▁ge",
        -8.544836044311523
      ],
      [
        "N",
        -8.547658920288086
      ],
      [
        "▁No",
        -8.55191421508789
      ],
      [
        "T",
        -8.552997589111328
      ],
      [
        "▁between",
        -8.558042526245117
      ],
      [
        "▁har",
        -8.563831329345703
      ],
      [
        "▁ta",
        -8.565726280212402
      ],
      [
        "▁use",
        -8.56666374206543
      ],
      [
        "ad",
        -8.566862106323242
      ],
      [
        "▁new",
        -8.567675590515137
      ],
      [
        "▁más",
        -8.568379402160645
      ],
      [
        "ha",
        -8.576822280883789
      ],
      [
        "ban",
        -8.577160835266113
      ],
      [
        "ben",
        -8.577348709106445
      ],
      [
        "▁pe",
        -8.581189155578613
      ],
      [
        "▁det",
        -8.581441879272461
      ],
      [
        "▁used",
        -8.581671714782715
      ],
      [
        "▁under",
        -8.582080841064453
      ],
      [
        "der",
        -8.58276081085205
      ],
      [
        "▁til",
        -8.584007263183594
      ],
      [
        "ter",
        -8.587773323059082
      ],
      [
        "▁Sie",
        -8.588615417480469
      ],
      [
        "▁after",
        -8.588781356811523
      ],
      [
        "G",
        -8.589462280273438
      ],
      [
        "▁ce",
        -8.59107494354248
      ],
      [
        "are",
        -8.59249210357666
      ],
      [
        "▁our",
        -8.593080520629883
      ],
      [
        "т",
        -8.594162940979004
      ],
      [
        "▁var",
        -8.594429016113281
      ],
      [
        "F",
        -8.59866714477539
      ],
      [
        "ů",
        -8.600525856018066
      ],
      [
        "▁these",
        -8.601478576660156
      ],
      [
        "ist",
        -8.603384017944336
      ],
      [
        "▁pas",
        -8.603638648986816
      ],
      [
        "si",
        -8.609207153320312
      ],
      [
        "né",
        -8.6094388961792
      ],
      [
        "ik",
        -8.610275268554688
      ],
      [
        "mo",
        -8.616774559020996
      ],
      [
        "ai",
        -8.618010520935059
      ],
      [
        "ο",
        -8.621394157409668
      ],
      [
        "za",
        -8.622632026672363
      ],
      [
        "▁που",
        -8.627519607543945
      ],
      [
        "▁nie",
        -8.62900447845459
      ],
      [
        "▁din",
        -8.62917709350586
      ],
      [
        "ung",
        -8.629759788513184
      ],
      [
        "▁ser",
        -8.630581855773926
      ],
      [
        "▁For",
        -8.634511947631836
      ],
      [
        "ze",
        -8.63726806640625
      ],
      [
        "▁Po",
        -8.637524604797363
      ],
      [
        "di",
        -8.637899398803711
      ],
      [
        "▁where",
        -8.638069152832031
      ],
      [
        "▁$",
        -8.638089179992676
      ],
      [
        "▁για",
        -8.638888359069824
      ],
      [
        "▁«",
        -8.639995574951172
      ],
      [
        "▁most",
        -8.640007972717285
      ],
      [
        "▁plus",
        -8.640643119812012
      ],
      [
        "H",
        -8.641592979431152
      ],
      [
        "▁/",
        -8.644267082214355
      ],
      [
        "▁data",
        -8.645190238952637
      ],
      [
        "▁like",
        -8.645437240600586
      ],
      [
        "▁Be",
        -8.646320343017578
      ],
      [
        "▁any",
        -8.647115707397461
      ],
      [
        "▁aus",
        -8.653278350830078
      ],
      [
        "▁mais",
        -8.654668807983398
      ],
      [
        "nt",
        -8.654733657836914
      ],
      [
        "V",
        -8.655647277832031
      ],
      [
        "ή",
        -8.660602569580078
      ],
      [
        "L",
        -8.663094520568848
      ],
      [
        "nie",
        -8.663337707519531
      ],
      [
        "та",
        -8.664422988891602
      ],
      [
        "▁f",
        -8.668686866760254
      ],
      [
        "▁zijn",
        -8.671380043029785
      ],
      [
        "▁As",
        -8.672783851623535
      ],
      [
        "▁till",
        -8.673181533813477
      ],
      [
        "ton",
        -8.673294067382812
      ],
      [
        "ų",
        -8.676166534423828
      ],
      [
        "▁entre",
        -8.679571151733398
      ],
      [
        "ό",
        -8.683770179748535
      ],
      [
        "ine",
        -8.687270164489746
      ],
      [
        "▁nicht",
        -8.68778133392334
      ],
      [
        "jo",
        -8.688019752502441
      ],
      [
        "▁по",
        -8.690633773803711
      ],
      [
        "▁η",
        -8.692485809326172
      ],
      [
        "ā",
        -8.69753360748291
      ],
      [
        "sta",
        -8.698487281799316
      ],
      [
        "▁care",
        -8.69914436340332
      ],
      [
        "io",
        -8.699956893920898
      ],
      [
        "▁them",
        -8.701726913452148
      ],
      [
        "able",
        -8.705123901367188
      ],
      [
        "▁New",
        -8.705334663391113
      ],
      [
        "▁war",
        -8.710271835327148
      ],
      [
        "▁dos",
        -8.713177680969238
      ],
      [
        "▁come",
        -8.715126991271973
      ],
      [
        "ent",
        -8.715279579162598
      ],
      [
        "ity",
        -8.720561981201172
      ],
      [
        "he",
        -8.722981452941895
      ],
      [
        "O",
        -8.72496509552002
      ],
      [
        "vi",
        -8.72626781463623
      ],
      [
        "ada",
        -8.728326797485352
      ],
      [
        "▁well",
        -8.730209350585938
      ],
      [
        "▁work",
        -8.732891082763672
      ],
      [
        "▁dat",
        -8.733696937561035
      ],
      [
        "▁So",
        -8.733783721923828
      ],
      [
        "R",
        -8.737870216369629
      ],
      [
        "▁Al",
        -8.739237785339355
      ],
      [
        "▁b",
        -8.744945526123047
      ],
      [
        "▁what",
        -8.746587753295898
      ],
      [
        "▁werden",
        -8.750227928161621
      ],
      [
        "go",
        -8.751208305358887
      ],
      [
        "po",
        -8.75362777709961
      ],
      [
        "com",
        -8.757011413574219
      ],
      [
        "ot",
        -8.757159233093262
      ],
      [
        "ty",
        -8.761041641235352
      ],
      [
        "▁sie",
        -8.761486053466797
      ],
      [
        "...",
        -8.76469898223877
      ],
      [
        "▁|",
        -8.765792846679688
      ],
      [
        "tu",
        -8.767759323120117
      ],
      [
        "▁people",
        -8.769551277160645
      ],
      [
        " :",
        -8.770401000976562
      ],
      [
        "W",
        -8.771103858947754
      ],
      [
        "▁just",
        -8.771439552307129
      ],
      [
        "▁n",
        -8.778962135314941
      ],
      [
        "▁avec",
        -8.779407501220703
      ],
      [
        "▁auch",
        -8.785338401794434
      ],
      [
        "▁nel",
        -8.791205406188965
      ],
      [
        "▁men",
        -8.791701316833496
      ],
      [
        "mente",
        -8.793965339660645
      ],
      [
        "▁film",
        -8.798169136047363
      ],
      [
        "▁go",
        -8.801725387573242
      ],
      [
        "ina",
        -8.802727699279785
      ],
      [
        "▁li",
        -8.803289413452148
      ],
      [
        "land",
        -8.80821704864502
      ],
      [
        "на",
        -8.810708999633789
      ],
      [
        "▁Er",
        -8.811372756958008
      ],
      [
        "▁σε",
        -8.812210083007812
      ],
      [
        "ak",
        -8.816976547241211
      ],
      [
        "▁using",
        -8.817978858947754
      ],
      [
        "ate",
        -8.82250690460205
      ],
      [
        "▁pod",
        -8.823088645935059
      ],
      [
        "ami",
        -8.823954582214355
      ],
      [
        "▁jest",
        -8.824710845947266
      ],
      [
        "▁ob",
        -8.825691223144531
      ],
      [
        "▁aan",
        -8.837004661560059
      ],
      [
        "ri",
        -8.839594841003418
      ],
      [
        "ion",
        -8.84238338470459
      ],
      [
        "ά",
        -8.844956398010254
      ],
      [
        "▁through",
        -8.846573829650879
      ],
      [
        "ista",
        -8.847668647766113
      ],
      [
        "▁she",
        -8.851666450500488
      ],
      [
        "▁των",
        -8.852946281433105
      ],
      [
        "▁g",
        -8.852993965148926
      ],
      [
        "ju",
        -8.853485107421875
      ],
      [
        "те",
        -8.854705810546875
      ],
      [
        "▁years",
        -8.857211112976074
      ],
      [
        "▁wurde",
        -8.85909652709961
      ],
      [
        "▁oder",
        -8.859580039978027
      ],
      [
        "▁Es",
        -8.86014175415039
      ],
      [
        "ž",
        -8.863743782043457
      ],
      [
        "▁part",
        -8.864236831665039
      ],
      [
        "ни",
        -8.864470481872559
      ],
      [
        "ú",
        -8.864912986755371
      ],
      [
        "ig",
        -8.8673095703125
      ],
      [
        "▁bei",
        -8.868192672729492
      ],
      [
        "▁pri",
        -8.870051383972168
      ],
      [
        "▁sind",
        -8.87256145477295
      ],
      [
        "▁tu",
        -8.87403678894043
      ],
      [
        "▁system",
        -8.875936508178711
      ],
      [
        "que",
        -8.876811981201172
      ],
      [
        "ll",
        -8.877553939819336
      ],
      [
        "].",
        -8.878052711486816
      ],
      [
        "▁Der",
        -8.881446838378906
      ],
      [
        "▁how",
        -8.883310317993164
      ],
      [
        "ción",
        -8.886991500854492
      ],
      [
        "▁nu",
        -8.887742042541504
      ],
      [
        "ky",
        -8.888548851013184
      ],
      [
        "▁iz",
        -8.889388084411621
      ],
      [
        "▁On",
        -8.889927864074707
      ],
      [
        "▁είναι",
        -8.893094062805176
      ],
      [
        "ry",
        -8.898750305175781
      ],
      [
        "gen",
        -8.899667739868164
      ],
      [
        "▁then",
        -8.905256271362305
      ],
      [
        "▁meg",
        -8.908400535583496
      ],
      [
        "ez",
        -8.908889770507812
      ],
      [
        "▁sin",
        -8.909663200378418
      ],
      [
        "▁τον",
        -8.91738510131836
      ],
      [
        "°",
        -8.917892456054688
      ],
      [
        "▁get",
        -8.918416023254395
      ],
      [
        "▁Un",
        -8.923340797424316
      ],
      [
        "▁mai",
        -8.92431354522705
      ],
      [
        "▁že",
        -8.925854682922363
      ],
      [
        "pa",
        -8.928930282592773
      ],
      [
        "\".",
        -8.93069839477539
      ],
      [
        "▁sua",
        -8.93083667755127
      ],
      [
        "▁could",
        -8.930861473083496
      ],
      [
        "▁ο",
        -8.930954933166504
      ],
      [
        "о",
        -8.934409141540527
      ],
      [
        "ção",
        -8.934736251831055
      ],
      [
        "▁each",
        -8.936468124389648
      ],
      [
        "▁Si",
        -8.936954498291016
      ],
      [
        "▁nach",
        -8.937726020812988
      ],
      [
        "▁hogy",
        -8.94211483001709
      ],
      [
        "gi",
        -8.942166328430176
      ],
      [
        "▁τα",
        -8.943168640136719
      ],
      [
        "▁during",
        -8.943243026733398
      ],
      [
        "men",
        -8.949772834777832
      ],
      [
        "uje",
        -8.954808235168457
      ],
      [
        "▁both",
        -8.957357406616211
      ],
      [
        "\",",
        -8.9588041305542
      ],
      [
        "▁different",
        -8.959294319152832
      ],
      [
        "ele",
        -8.960187911987305
      ],
      [
        "▁should",
        -8.960314750671387
      ],
      [
        "son",
        -8.963760375976562
      ],
      [
        "▁many",
        -8.96448040008545
      ],
      [
        "▁If",
        -8.965975761413574
      ],
      [
        "ner",
        -8.968022346496582
      ],
      [
        "by",
        -8.968177795410156
      ],
      [
        "▁Les",
        -8.968765258789062
      ],
      [
        "▁Ver",
        -8.969917297363281
      ],
      [
        "▁στο",
        -8.97089958190918
      ],
      [
        "▁sont",
        -8.972940444946289
      ],
      [
        "š",
        -8.973526000976562
      ],
      [
        "▁door",
        -8.973544120788574
      ],
      [
        "une",
        -8.976927757263184
      ],
      [
        "▁make",
        -8.980504989624023
      ],
      [
        "mu",
        -8.982996940612793
      ],
      [
        "▁parte",
        -8.983471870422363
      ],
      [
        "▁qu",
        -8.985250473022461
      ],
      [
        "▁Co",
        -8.986623764038086
      ],
      [
        "ji",
        -8.988941192626953
      ],
      [
        "▁same",
        -8.990891456604004
      ],
      [
        "▁ka",
        -8.99300479888916
      ],
      [
        "▁einer",
        -8.995004653930664
      ],
      [
        "▁Con",
        -8.995742797851562
      ],
      [
        "▁vy",
        -8.997227668762207
      ],
      [
        "du",
        -8.999350547790527
      ],
      [
        "▁sobre",
        -9.002224922180176
      ],
      [
        "▁über",
        -9.005138397216797
      ],
      [
        "η",
        -9.007099151611328
      ],
      [
        "▁tal",
        -9.012571334838867
      ],
      [
        "▁uit",
        -9.016107559204102
      ],
      [
        "up",
        -9.01687717437744
      ],
      [
        "▁ze",
        -9.018356323242188
      ],
      [
        "▁wie",
        -9.02119255065918
      ],
      [
        "ego",
        -9.023696899414062
      ],
      [
        "\\",
        -9.024490356445312
      ],
      [
        "▁ca",
        -9.025532722473145
      ],
      [
        "▁number",
        -9.029780387878418
      ],
      [
        "▁being",
        -9.0320405960083
      ],
      [
        "ut",
        -9.03421688079834
      ],
      [
        "ului",
        -9.03489112854004
      ],
      [
        "▁You",
        -9.037131309509276
      ],
      [
        "то",
        -9.037843704223633
      ],
      [
        "▁+",
        -9.038091659545898
      ],
      [
        "▁high",
        -9.04038143157959
      ],
      [
        "vo",
        -9.040761947631836
      ],
      [
        "▁să",
        -9.04259204864502
      ],
      [
        "▁X",
        -9.043269157409668
      ],
      [
        "▁Do",
        -9.043869972229004
      ],
      [
        "ě",
        -9.044405937194824
      ],
      [
        "▁vous",
        -9.045572280883787
      ],
      [
        "▁roku",
        -9.045794486999512
      ],
      [
        "▁need",
        -9.045928955078123
      ],
      [
        "J",
        -9.046125411987305
      ],
      [
        "▁sub",
        -9.048973083496094
      ],
      [
        "▁nem",
        -9.048980712890623
      ],
      [
        "ting",
        -9.05041790008545
      ],
      [
        "▁St",
        -9.055584907531738
      ],
      [
        "▁alla",
        -9.056169509887695
      ],
      [
        "▁dell",
        -9.056377410888672
      ],
      [
        "ol",
        -9.058794975280762
      ],
      [
        "▁three",
        -9.059805870056152
      ],
      [
        "▁στην",
        -9.06741714477539
      ],
      [
        "zi",
        -9.06752586364746
      ],
      [
        "tion",
        -9.069491386413574
      ],
      [
        "▁vor",
        -9.07103443145752
      ],
      [
        "▁wird",
        -9.072407722473145
      ],
      [
        "▁dass",
        -9.072564125061035
      ],
      [
        "▁pentru",
        -9.074707984924316
      ],
      [
        "the",
        -9.078248023986816
      ],
      [
        "▁—",
        -9.079123497009276
      ],
      [
        "▁egy",
        -9.07984733581543
      ],
      [
        "▁ve",
        -9.081459045410156
      ],
      [
        "▁ad",
        -9.08193302154541
      ],
      [
        "and",
        -9.082493782043455
      ],
      [
        "▁bis",
        -9.084022521972656
      ],
      [
        "▁made",
        -9.08449363708496
      ],
      [
        "▁τη",
        -9.084644317626951
      ],
      [
        "bo",
        -9.086181640625
      ],
      [
        "tor",
        -9.08633804321289
      ],
      [
        "▁because",
        -9.087754249572754
      ],
      [
        "▁long",
        -9.089950561523438
      ],
      [
        "▁before",
        -9.090072631835938
      ],
      [
        "ně",
        -9.091021537780762
      ],
      [
        "ber",
        -9.092994689941406
      ],
      [
        "▁while",
        -9.09542751312256
      ],
      [
        "▁model",
        -9.095891952514648
      ],
      [
        "▁very",
        -9.09597110748291
      ],
      [
        "▁foi",
        -9.096500396728516
      ],
      [
        "▁bi",
        -9.098858833312988
      ],
      [
        "▁era",
        -9.09945583343506
      ],
      [
        "▁sono",
        -9.100601196289062
      ],
      [
        "▁University",
        -9.10094928741455
      ],
      [
        "▁study",
        -9.101853370666504
      ],
      [
        "ý",
        -9.102133750915527
      ],
      [
        "án",
        -9.102912902832031
      ],
      [
        "▁now",
        -9.105429649353027
      ],
      [
        "но",
        -9.106080055236816
      ],
      [
        "▁tra",
        -9.106510162353516
      ],
      [
        "▁sus",
        -9.107307434082031
      ],
      [
        "nia",
        -9.11033821105957
      ],
      [
        "ών",
        -9.110421180725098
      ],
      [
        "▁due",
        -9.110544204711914
      ],
      [
        "▁II",
        -9.113408088684082
      ],
      [
        "▁più",
        -9.116640090942385
      ],
      [
        "des",
        -9.116649627685549
      ],
      [
        "és",
        -9.118368148803713
      ],
      [
        "▁set",
        -9.119558334350586
      ],
      [
        "ć",
        -9.11978530883789
      ],
      [
        "я",
        -9.121073722839355
      ],
      [
        "ste",
        -9.12390422821045
      ],
      [
        "▁ale",
        -9.12567138671875
      ],
      [
        "▁não",
        -9.126136779785156
      ],
      [
        "▁vi",
        -9.127102851867676
      ],
      [
        "▁form",
        -9.129752159118652
      ],
      [
        "▁even",
        -9.134605407714844
      ],
      [
        "ska",
        -9.136397361755373
      ],
      [
        "per",
        -9.138096809387209
      ],
      [
        "▁public",
        -9.140600204467772
      ],
      [
        "au",
        -9.141511917114258
      ],
      [
        "▁way",
        -9.14224910736084
      ],
      [
        "▁San",
        -9.142328262329102
      ],
      [
        "+",
        -9.14730453491211
      ],
      [
        "▁year",
        -9.148347854614258
      ],
      [
        "ato",
        -9.14909839630127
      ],
      [
        "▁ko",
        -9.149710655212402
      ],
      [
        "ud",
        -9.150757789611816
      ],
      [
        "▁information",
        -9.157081604003906
      ],
      [
        "nu",
        -9.159412384033203
      ],
      [
        "ken",
        -9.162199020385742
      ],
      [
        "ação",
        -9.162553787231444
      ],
      [
        "}",
        -9.16338062286377
      ],
      [
        "…",
        -9.164212226867676
      ],
      [
        "bi",
        -9.164335250854492
      ],
      [
        "The",
        -9.166219711303713
      ],
      [
        "▁alle",
        -9.16886043548584
      ],
      [
        "▁\\",
        -9.169622421264648
      ],
      [
        "▁ab",
        -9.17033863067627
      ],
      [
        "od",
        -9.17270565032959
      ],
      [
        "ych",
        -9.173311233520508
      ],
      [
        "▁x",
        -9.173354148864746
      ],
      [
        "▁Y",
        -9.176169395446776
      ],
      [
        "▁Pro",
        -9.176560401916504
      ],
      [
        "▁place",
        -9.177757263183594
      ],
      [
        "ais",
        -9.179161071777344
      ],
      [
        "[",
        -9.180524826049805
      ],
      [
        "▁eller",
        -9.18193817138672
      ],
      [
        "▁Ne",
        -9.182270050048828
      ],
      [
        "▁those",
        -9.182437896728516
      ],
      [
        "▁see",
        -9.183414459228516
      ],
      [
        "ación",
        -9.184762954711914
      ],
      [
        "ning",
        -9.18693733215332
      ],
      [
        "mer",
        -9.187060356140137
      ],
      [
        "▁Ma",
        -9.188507080078123
      ],
      [
        "nek",
        -9.189367294311523
      ],
      [
        "▁important",
        -9.190677642822266
      ],
      [
        "dy",
        -9.192055702209473
      ],
      [
        "▁fue",
        -9.198755264282228
      ],
      [
        "▁found",
        -9.200212478637695
      ],
      [
        "▁second",
        -9.20179271697998
      ],
      [
        "▁Az",
        -9.202866554260254
      ],
      [
        "Z",
        -9.207077026367188
      ],
      [
        "=",
        -9.207399368286133
      ],
      [
        "▁him",
        -9.208873748779297
      ],
      [
        "ite",
        -9.209203720092772
      ],
      [
        "▁Das",
        -9.210203170776367
      ],
      [
        "ita",
        -9.212800979614258
      ],
      [
        "▁Za",
        -9.213349342346191
      ],
      [
        "ando",
        -9.213772773742676
      ],
      [
        "ler",
        -9.213845252990724
      ],
      [
        "▁end",
        -9.215862274169922
      ],
      [
        "▁water",
        -9.216158866882324
      ],
      [
        "▁including",
        -9.217288970947266
      ],
      [
        "wa",
        -9.218694686889648
      ],
      [
        "▁back",
        -9.219366073608398
      ],
      [
        "con",
        -9.221524238586426
      ],
      [
        "▁einem",
        -9.22178554534912
      ],
      [
        "pe",
        -9.222907066345217
      ],
      [
        "▁τους",
        -9.223901748657228
      ],
      [
        "$",
        -9.224665641784668
      ],
      [
        "▁She",
        -9.224982261657717
      ],
      [
        "▁post",
        -9.227115631103516
      ],
      [
        "▁han",
        -9.2275390625
      ],
      [
        "▁‘",
        -9.228562355041504
      ],
      [
        "▁Man",
        -9.229268074035645
      ],
      [
        "▁durch",
        -9.230237007141112
      ],
      [
        "▁test",
        -9.231639862060549
      ],
      [
        "át",
        -9.231776237487791
      ],
      [
        "ven",
        -9.231925964355469
      ],
      [
        "▁mu",
        -9.235455513000488
      ],
      [
        "ana",
        -9.23585605621338
      ],
      [
        "ές",
        -9.24083423614502
      ],
      [
        "▁zum",
        -9.243127822875977
      ],
      [
        "lu",
        -9.24535083770752
      ],
      [
        "▁online",
        -9.246001243591309
      ],
      [
        "ive",
        -9.24770164489746
      ],
      [
        "del",
        -9.248247146606444
      ],
      [
        "▁All",
        -9.249425888061523
      ],
      [
        "▁aux",
        -9.24945068359375
      ],
      [
        "ите",
        -9.250014305114746
      ],
      [
        "▁state",
        -9.250972747802734
      ],
      [
        "▁And",
        -9.251376152038574
      ],
      [
        "▁Ha",
        -9.251726150512695
      ],
      [
        "zione",
        -9.251766204833984
      ],
      [
        "dos",
        -9.25542163848877
      ],
      [
        "▁jak",
        -9.255910873413086
      ],
      [
        "▁At",
        -9.256669998168944
      ],
      [
        "▁fi",
        -9.257091522216797
      ],
      [
        "ata",
        -9.257442474365234
      ],
      [
        "ger",
        -9.258376121520996
      ],
      [
        "▁There",
        -9.26013469696045
      ],
      [
        "▁hat",
        -9.2614164352417
      ],
      [
        "ssa",
        -9.26167106628418
      ],
      [
        "▁*",
        -9.261889457702637
      ],
      [
        "▁ex",
        -9.262283325195312
      ],
      [
        "das",
        -9.262324333190918
      ],
      [
        "les",
        -9.26427173614502
      ],
      [
        "▁us",
        -9.265487670898438
      ],
      [
        "▁group",
        -9.266486167907717
      ],
      [
        "▁much",
        -9.267182350158691
      ],
      [
        "ling",
        -9.26763153076172
      ],
      [
        "ile",
        -9.26965618133545
      ],
      [
        "▁Su",
        -9.26970386505127
      ],
      [
        "▁delle",
        -9.270121574401855
      ],
      [
        "▁Je",
        -9.272381782531738
      ],
      [
        "ná",
        -9.273117065429688
      ],
      [
        "▁local",
        -9.273133277893066
      ],
      [
        "▁social",
        -9.27316188812256
      ],
      [
        "▁John",
        -9.27348804473877
      ],
      [
        "▁Per",
        -9.273918151855469
      ],
      [
        "▁Η",
        -9.274230003356934
      ],
      [
        "▁total",
        -9.27487850189209
      ],
      [
        "ż",
        -9.275228500366213
      ],
      [
        "▁einen",
        -9.275345802307127
      ],
      [
        "cu",
        -9.275552749633787
      ],
      [
        "▁jako",
        -9.276870727539062
      ],
      [
        "▁best",
        -9.277411460876465
      ],
      [
        "▁control",
        -9.277490615844728
      ],
      [
        "▁Los",
        -9.27853298187256
      ],
      [
        "ih",
        -9.279071807861328
      ],
      [
        "▁final",
        -9.279767990112305
      ],
      [
        "min",
        -9.280792236328123
      ],
      [
        "▁h",
        -9.28144073486328
      ],
      [
        "▁know",
        -9.285694122314451
      ],
      [
        "▁help",
        -9.28695011138916
      ],
      [
        "▁case",
        -9.28883457183838
      ],
      [
        "▁said",
        -9.28912353515625
      ],
      [
        "ł",
        -9.290559768676758
      ],
      [
        "sti",
        -9.291252136230469
      ],
      [
        "age",
        -9.291690826416016
      ],
      [
        "”,",
        -9.293472290039062
      ],
      [
        "▁good",
        -9.294561386108398
      ],
      [
        "X",
        -9.295475006103516
      ],
      [
        "▁oli",
        -9.296663284301758
      ],
      [
        "▁Het",
        -9.29892921447754
      ],
      [
        "mos",
        -9.29924774169922
      ],
      [
        "»",
        -9.30105686187744
      ],
      [
        "▁r",
        -9.304452896118164
      ],
      [
        "ée",
        -9.304647445678713
      ],
      [
        "▁American",
        -9.30649471282959
      ],
      [
        "▁tak",
        -9.30716037750244
      ],
      [
        "ica",
        -9.30785083770752
      ],
      [
        "ski",
        -9.309493064880373
      ],
      [
        "ex",
        -9.309941291809082
      ],
      [
        "▁team",
        -9.31112289428711
      ],
      [
        "▁niet",
        -9.31117057800293
      ],
      [
        "▁Mar",
        -9.311617851257324
      ],
      [
        "▁Me",
        -9.31293773651123
      ],
      [
        "ен",
        -9.31294059753418
      ],
      [
        "▁está",
        -9.313254356384276
      ],
      [
        "▁Du",
        -9.314752578735352
      ],
      [
        "ted",
        -9.32385540008545
      ],
      [
        "▁forma",
        -9.3239164352417
      ],
      [
        "ian",
        -9.324687004089355
      ],
      [
        "val",
        -9.32498836517334
      ],
      [
        "▁mis",
        -9.325066566467283
      ],
      [
        "ει",
        -9.32518196105957
      ],
      [
        "ili",
        -9.32583236694336
      ],
      [
        "let",
        -9.3265962600708
      ],
      [
        "м",
        -9.327621459960938
      ],
      [
        "▁ich",
        -9.32951831817627
      ],
      [
        "▁process",
        -9.33152961730957
      ],
      [
        "▁don",
        -9.332298278808594
      ],
      [
        "▁following",
        -9.33338737487793
      ],
      [
        "▁bo",
        -9.333574295043944
      ],
      [
        "ende",
        -9.335180282592772
      ],
      [
        "▁не",
        -9.336703300476074
      ],
      [
        "ab",
        -9.337566375732422
      ],
      [
        "q",
        -9.338059425354004
      ],
      [
        "▁▁▁▁▁▁▁▁▁▁▁▁▁▁▁▁",
        -9.338852882385254
      ],
      [
        "mm",
        -9.341598510742188
      ],
      [
        "tal",
        -9.341647148132324
      ],
      [
        "▁However",
        -9.342696189880373
      ],
      [
        "▁ett",
        -9.343057632446287
      ],
      [
        "U",
        -9.345196723937988
      ],
      [
        "”.",
        -9.346991539001465
      ],
      [
        "pi",
        -9.3474702835083
      ],
      [
        "ν",
        -9.349468231201172
      ],
      [
        "▁National",
        -9.349485397338867
      ],
      [
        "cy",
        -9.352548599243164
      ],
      [
        "ische",
        -9.3528413772583
      ],
      [
        "▁kann",
        -9.35487461090088
      ],
      [
        "▁general",
        -9.355094909667969
      ],
      [
        "for",
        -9.355419158935549
      ],
      [
        "sz",
        -9.355950355529783
      ],
      [
        "ão",
        -9.356752395629885
      ],
      [
        "iz",
        -9.357605934143066
      ],
      [
        "▁point",
        -9.357902526855469
      ],
      [
        "▁plan",
        -9.357929229736328
      ],
      [
        "ster",
        -9.359688758850098
      ],
      [
        "▁że",
        -9.361000061035156
      ],
      [
        "▁г",
        -9.361428260803224
      ],
      [
        "ι",
        -9.36418914794922
      ],
      [
        "ck",
        -9.364259719848633
      ],
      [
        "tel",
        -9.364758491516112
      ],
      [
        "ym",
        -9.364951133728027
      ],
      [
        "line",
        -9.365066528320312
      ],
      [
        "▁zur",
        -9.365361213684082
      ],
      [
        "▁life",
        -9.365938186645508
      ],
      [
        "▁Da",
        -9.368157386779783
      ],
      [
        "ante",
        -9.368497848510742
      ],
      [
        "bar",
        -9.36892032623291
      ],
      [
        "▁km",
        -9.37081241607666
      ],
      [
        "▁tai",
        -9.371379852294922
      ],
      [
        "▁car",
        -9.371625900268556
      ],
      [
        "my",
        -9.372235298156738
      ],
      [
        "▁real",
        -9.37329387664795
      ],
      [
        ".\"",
        -9.373334884643556
      ],
      [
        "▁take",
        -9.37416648864746
      ],
      [
        "▁anti",
        -9.375810623168944
      ],
      [
        "nak",
        -9.375925064086914
      ],
      [
        "▁They",
        -9.37604808807373
      ],
      [
        "km",
        -9.376140594482422
      ],
      [
        "kon",
        -9.379467010498049
      ],
      [
        "ού",
        -9.380515098571776
      ],
      [
        "▁Im",
        -9.381218910217283
      ],
      [
        "▁program",
        -9.382498741149902
      ],
      [
        "▁still",
        -9.383410453796388
      ],
      [
        "е",
        -9.383625984191896
      ],
      [
        "▁did",
        -9.38478660583496
      ],
      [
        "op",
        -9.38486671447754
      ],
      [
        "kin",
        -9.3869047164917
      ],
      [
        "▁dei",
        -9.3873929977417
      ],
      [
        "{",
        -9.387446403503418
      ],
      [
        "end",
        -9.389442443847656
      ],
      [
        "▁right",
        -9.389680862426758
      ],
      [
        "ati",
        -9.39001178741455
      ],
      [
        "▁York",
        -9.39001750946045
      ],
      [
        "▁ap",
        -9.392827033996582
      ],
      [
        "ies",
        -9.39295768737793
      ],
      [
        "не",
        -9.393247604370115
      ],
      [
        "elle",
        -9.394526481628418
      ],
      [
        "nej",
        -9.39667510986328
      ],
      [
        "▁bij",
        -9.397085189819336
      ],
      [
        "▁Ab",
        -9.398259162902832
      ],
      [
        "ii",
        -9.402860641479492
      ],
      [
        "che",
        -9.403820991516112
      ],
      [
        "▁ei",
        -9.405253410339355
      ],
      [
        "▁Den",
        -9.406036376953123
      ],
      [
        "▁gli",
        -9.406387329101562
      ],
      [
        "▁results",
        -9.406578063964844
      ],
      [
        "ες",
        -9.406615257263184
      ],
      [
        "▁wy",
        -9.407044410705566
      ],
      [
        "▁patients",
        -9.40719223022461
      ],
      [
        "ac",
        -9.409394264221191
      ],
      [
        "▁But",
        -9.409809112548828
      ],
      [
        "▁Em",
        -9.411975860595703
      ],
      [
        "▁dal",
        -9.412065505981444
      ],
      [
        "▁Ein",
        -9.41280746459961
      ],
      [
        "ка",
        -9.41408634185791
      ],
      [
        "vis",
        -9.41481876373291
      ],
      [
        "▁comme",
        -9.415508270263672
      ],
      [
        "▁problem",
        -9.41580581665039
      ],
      [
        "▁World",
        -9.416813850402832
      ],
      [
        "▁within",
        -9.416814804077148
      ],
      [
        "ale",
        -9.41984748840332
      ],
      [
        "tas",
        -9.420392036437988
      ],
      [
        "sen",
        -9.421563148498535
      ],
      [
        "▁known",
        -9.421710014343262
      ],
      [
        "uri",
        -9.421738624572754
      ],
      [
        "υ",
        -9.423591613769531
      ],
      [
        "ados",
        -9.425941467285156
      ],
      [
        "ts",
        -9.426755905151367
      ],
      [
        "▁based",
        -9.426892280578612
      ],
      [
        "illa",
        -9.427943229675291
      ],
      [
        "▁United",
        -9.4307222366333
      ],
      [
        "tra",
        -9.432955741882324
      ],
      [
        "fi",
        -9.434056282043455
      ],
      [
        "ness",
        -9.435638427734377
      ],
      [
        "▁against",
        -9.438692092895508
      ],
      [
        "ks",
        -9.438765525817873
      ],
      [
        "▁last",
        -9.43946647644043
      ],
      [
        "tar",
        -9.44128704071045
      ],
      [
        "so",
        -9.441656112670898
      ],
      [
        "▁world",
        -9.44203758239746
      ],
      [
        "▁>",
        -9.443294525146484
      ],
      [
        "▁са",
        -9.443617820739746
      ],
      [
        "▁Ο",
        -9.4437894821167
      ],
      [
        "▁want",
        -9.446203231811523
      ],
      [
        "gar",
        -9.451261520385742
      ],
      [
        "://",
        -9.451838493347168
      ],
      [
        "sk",
        -9.4547758102417
      ],
      [
        "▁support",
        -9.45539379119873
      ],
      [
        "▁Det",
        -9.457462310791016
      ],
      [
        "tes",
        -9.45776653289795
      ],
      [
        "▁ont",
        -9.458009719848633
      ],
      [
        "▁home",
        -9.458979606628418
      ],
      [
        "ru",
        -9.461419105529783
      ],
      [
        "ard",
        -9.46200466156006
      ],
      [
        "▁Ko",
        -9.462092399597168
      ],
      [
        "zu",
        -9.464238166809082
      ],
      [
        "ron",
        -9.465134620666504
      ],
      [
        "▁since",
        -9.465218544006348
      ],
      [
        "▁far",
        -9.46561336517334
      ],
      [
        "▁find",
        -9.46672248840332
      ],
      [
        "▁research",
        -9.467703819274902
      ],
      [
        ".”",
        -9.46810245513916
      ],
      [
        "▁around",
        -9.46853733062744
      ],
      [
        "▁name",
        -9.468544006347656
      ],
      [
        "▁fra",
        -9.469266891479492
      ],
      [
        "▁Ge",
        -9.469831466674805
      ],
      [
        "ido",
        -9.470540046691896
      ],
      [
        "▁οι",
        -9.471328735351562
      ],
      [
        "▁order",
        -9.472307205200195
      ],
      [
        "ali",
        -9.473596572875977
      ],
      [
        "▁here",
        -9.47368621826172
      ],
      [
        "▁ci",
        -9.475833892822266
      ],
      [
        "▁day",
        -9.476868629455566
      ],
      [
        "▁inter",
        -9.477264404296877
      ],
      [
        "▁τις",
        -9.47747039794922
      ],
      [
        "▁mar",
        -9.478434562683104
      ],
      [
        "▁family",
        -9.47863483428955
      ],
      [
        "lor",
        -9.478859901428224
      ],
      [
        "cie",
        -9.479202270507812
      ],
      [
        "ske",
        -9.479255676269531
      ],
      [
        "▁anche",
        -9.479865074157717
      ],
      [
        "▁dé",
        -9.480069160461426
      ],
      [
        "▁base",
        -9.48301124572754
      ],
      [
        "▁down",
        -9.484450340270996
      ],
      [
        "sch",
        -9.484992027282717
      ],
      [
        "lle",
        -9.4871244430542
      ],
      [
        "one",
        -9.487181663513184
      ],
      [
        "era",
        -9.487190246582031
      ],
      [
        "▁later",
        -9.48878574371338
      ],
      [
        "▁lui",
        -9.490495681762695
      ],
      [
        "▁without",
        -9.491182327270508
      ],
      [
        "▁durante",
        -9.491332054138184
      ],
      [
        "▁va",
        -9.491351127624512
      ],
      [
        "▁Vi",
        -9.49385929107666
      ],
      [
        "▁show",
        -9.496211051940918
      ],
      [
        "▁must",
        -9.496384620666504
      ],
      [
        "uk",
        -9.498900413513184
      ],
      [
        "▁Go",
        -9.498900413513184
      ],
      [
        "ide",
        -9.499625205993652
      ],
      [
        "ft",
        -9.500370025634766
      ],
      [
        "▁fel",
        -9.500579833984377
      ],
      [
        "▁#",
        -9.50063133239746
      ],
      [
        "▁album",
        -9.501104354858398
      ],
      [
        "▁worden",
        -9.501537322998049
      ],
      [
        "▁« ",
        -9.503055572509766
      ],
      [
        "▁sig",
        -9.506221771240234
      ],
      [
        "ille",
        -9.506640434265137
      ],
      [
        "▁können",
        -9.5075101852417
      ],
      [
        "ere",
        -9.50961685180664
      ],
      [
        "ți",
        -9.50967788696289
      ],
      [
        "▁werd",
        -9.51194953918457
      ],
      [
        "ano",
        -9.513632774353027
      ],
      [
        "▁Ar",
        -9.514294624328612
      ],
      [
        "ου",
        -9.514887809753418
      ],
      [
        "iem",
        -9.51557159423828
      ],
      [
        "▁Ja",
        -9.516656875610352
      ],
      [
        "▁does",
        -9.518001556396484
      ],
      [
        "ida",
        -9.51844596862793
      ],
      [
        "▁из",
        -9.518542289733888
      ],
      [
        "nik",
        -9.520939826965332
      ],
      [
        "▁nos",
        -9.52377700805664
      ],
      [
        "▁main",
        -9.524898529052734
      ],
      [
        "с",
        -9.526384353637695
      ],
      [
        "н",
        -9.52788257598877
      ],
      [
        "▁May",
        -9.52858829498291
      ],
      [
        "▁large",
        -9.530474662780762
      ],
      [
        "▁site",
        -9.532118797302246
      ],
      [
        "▁Lo",
        -9.532217979431152
      ],
      [
        "▁seu",
        -9.533514022827148
      ],
      [
        "):",
        -9.53372287750244
      ],
      [
        "▁via",
        -9.53384017944336
      ],
      [
        "▁ISBN",
        -9.534330368041992
      ],
      [
        "▁When",
        -9.534538269042969
      ],
      [
        "fe",
        -9.53502082824707
      ],
      [
        "▁After",
        -9.535049438476562
      ],
      [
        "berg",
        -9.535111427307127
      ],
      [
        "▁Am",
        -9.536033630371094
      ],
      [
        "▁August",
        -9.536564826965332
      ],
      [
        "▁inte",
        -9.536920547485352
      ],
      [
        "var",
        -9.53757095336914
      ],
      [
        "ance",
        -9.53764533996582
      ],
      [
        "rea",
        -9.537894248962402
      ],
      [
        "▁These",
        -9.538004875183104
      ],
      [
        "▁design",
        -9.538446426391602
      ],
      [
        "ία",
        -9.538901329040527
      ],
      [
        "▁solo",
        -9.539024353027344
      ],
      [
        "▁hand",
        -9.539470672607422
      ],
      [
        "nes",
        -9.53991985321045
      ],
      [
        "▁own",
        -9.540037155151367
      ],
      [
        "▁small",
        -9.540099143981934
      ],
      [
        "ker",
        -9.540536880493164
      ],
      [
        "gel",
        -9.541314125061035
      ],
      [
        "ary",
        -9.54143238067627
      ],
      [
        "ous",
        -9.541500091552734
      ],
      [
        "ých",
        -9.541522026062012
      ],
      [
        "bu",
        -9.541918754577637
      ],
      [
        "vel",
        -9.543828964233398
      ],
      [
        "▁iš",
        -9.54387664794922
      ],
      [
        "▁ri",
        -9.54513168334961
      ],
      [
        "▁Sa",
        -9.54542350769043
      ],
      [
        "▁vol",
        -9.545659065246582
      ],
      [
        "▁mi",
        -9.547185897827148
      ],
      [
        "ura",
        -9.548357009887695
      ],
      [
        "▁Di",
        -9.54926300048828
      ],
      [
        "▁Ta",
        -9.549983978271484
      ],
      [
        "▁nella",
        -9.551822662353516
      ],
      [
        "й",
        -9.551910400390623
      ],
      [
        "iti",
        -9.55411148071289
      ],
      [
        "▁result",
        -9.554657936096191
      ],
      [
        "▁Το",
        -9.556376457214355
      ],
      [
        ");",
        -9.558753967285156
      ],
      [
        "▁level",
        -9.558815002441406
      ],
      [
        "ley",
        -9.562475204467772
      ],
      [
        "ated",
        -9.56253433227539
      ],
      [
        "nd",
        -9.563031196594238
      ],
      [
        "ega",
        -9.563065528869627
      ],
      [
        "ige",
        -9.5631685256958
      ],
      [
        "▁agus",
        -9.5635986328125
      ],
      [
        "▁esta",
        -9.56360912322998
      ],
      [
        "▁ook",
        -9.563838005065918
      ],
      [
        "▁area",
        -9.564038276672363
      ],
      [
        "▁dan",
        -9.56462287902832
      ],
      [
        "▁type",
        -9.564933776855469
      ],
      [
        "▁mas",
        -9.5653657913208
      ],
      [
        "ő",
        -9.565594673156738
      ],
      [
        "ε",
        -9.568936347961426
      ],
      [
        "ischen",
        -9.569095611572266
      ],
      [
        "▁Li",
        -9.56956958770752
      ],
      [
        "bra",
        -9.570361137390137
      ],
      [
        "lin",
        -9.57043743133545
      ],
      [
        "▁ter",
        -9.57183837890625
      ],
      [
        "ire",
        -9.572149276733398
      ],
      [
        "ný",
        -9.573342323303224
      ],
      [
        "▁été",
        -9.575523376464844
      ],
      [
        "▁single",
        -9.575883865356444
      ],
      [
        "ei",
        -9.576017379760742
      ],
      [
        "nte",
        -9.57845687866211
      ],
      [
        "ren",
        -9.579777717590332
      ],
      [
        "▁į",
        -9.581165313720703
      ],
      [
        "▁Bar",
        -9.58338451385498
      ],
      [
        "▁unter",
        -9.584183692932127
      ],
      [
        "▁Dr",
        -9.58647346496582
      ],
      [
        "ва",
        -9.58713150024414
      ],
      [
        "▁War",
        -9.588074684143066
      ],
      [
        "ement",
        -9.588125228881836
      ],
      [
        "▁Para",
        -9.588391304016112
      ],
      [
        "ism",
        -9.589171409606934
      ],
      [
        "her",
        -9.590940475463867
      ],
      [
        "▁think",
        -9.590959548950195
      ],
      [
        "▁health",
        -9.591014862060549
      ],
      [
        "eur",
        -9.59174346923828
      ],
      [
        "▁ao",
        -9.592108726501465
      ],
      [
        "pro",
        -9.594388008117676
      ],
      [
        "▁roz",
        -9.595256805419922
      ],
      [
        "▁development",
        -9.596078872680664
      ],
      [
        "▁nur",
        -9.596197128295898
      ],
      [
        "azione",
        -9.596405029296877
      ],
      [
        "hu",
        -9.597126007080078
      ],
      [
        "▁several",
        -9.597491264343262
      ],
      [
        "ang",
        -9.597576141357422
      ],
      [
        "▁puede",
        -9.598485946655272
      ],
      [
        "dor",
        -9.599098205566406
      ],
      [
        "ici",
        -9.599366188049316
      ],
      [
        "▁possible",
        -9.60044288635254
      ],
      [
        "té",
        -9.60063648223877
      ],
      [
        "ía",
        -9.60344696044922
      ],
      [
        "eg",
        -9.604533195495604
      ],
      [
        "▁four",
        -9.60510540008545
      ],
      [
        "▁line",
        -9.607365608215332
      ],
      [
        "▁top",
        -9.607855796813965
      ],
      [
        "len",
        -9.607935905456545
      ],
      [
        "tro",
        -9.608240127563477
      ],
      [
        "mar",
        -9.608692169189451
      ],
      [
        "ón",
        -9.608991622924805
      ],
      [
        "ων",
        -9.61085605621338
      ],
      [
        "▁school",
        -9.611669540405272
      ],
      [
        "—",
        -9.611989974975586
      ],
      [
        "gu",
        -9.612870216369627
      ],
      [
        "sko",
        -9.614057540893556
      ],
      [
        "▁ho",
        -9.61555004119873
      ],
      [
        "▁Ca",
        -9.615926742553713
      ],
      [
        "▁fin",
        -9.616158485412598
      ],
      [
        "▁service",
        -9.617385864257812
      ],
      [
        "zo",
        -9.618172645568848
      ],
      [
        "▁until",
        -9.618226051330566
      ],
      [
        "▁че",
        -9.619519233703612
      ],
      [
        "č",
        -9.619800567626951
      ],
      [
        "▁present",
        -9.619871139526367
      ],
      [
        "ier",
        -9.620119094848633
      ],
      [
        "▁kon",
        -9.62047004699707
      ],
      [
        "▁power",
        -9.621167182922363
      ],
      [
        "▁kas",
        -9.621380805969238
      ],
      [
        "las",
        -9.622615814208984
      ],
      [
        "▁US",
        -9.625864028930664
      ],
      [
        "▁Pre",
        -9.627690315246582
      ],
      [
        "▁game",
        -9.628687858581545
      ],
      [
        "▁One",
        -9.629924774169922
      ],
      [
        "▁By",
        -9.630081176757812
      ],
      [
        "▁off",
        -9.63018798828125
      ],
      [
        "hi",
        -9.630671501159668
      ],
      [
        "vin",
        -9.631065368652344
      ],
      [
        "▁start",
        -9.631522178649902
      ],
      [
        "▁sein",
        -9.631786346435549
      ],
      [
        "▁aby",
        -9.631857872009276
      ],
      [
        "▁си",
        -9.63354206085205
      ],
      [
        "▁season",
        -9.634663581848145
      ],
      [
        "▁Pa",
        -9.634708404541016
      ],
      [
        "ité",
        -9.635303497314451
      ],
      [
        "▁Or",
        -9.635668754577637
      ],
      [
        "в",
        -9.636534690856934
      ],
      [
        " –",
        -9.637372016906738
      ],
      [
        "▁sp",
        -9.639581680297852
      ],
      [
        "ria",
        -9.639684677124023
      ],
      [
        "▁change",
        -9.640054702758787
      ],
      [
        "cha",
        -9.64078426361084
      ],
      [
        "▁include",
        -9.641547203063965
      ],
      [
        "х",
        -9.641915321350098
      ],
      [
        "▁ten",
        -9.642085075378418
      ],
      [
        "▁като",
        -9.642256736755373
      ],
      [
        "res",
        -9.64621353149414
      ],
      [
        "▁jo",
        -9.646275520324709
      ],
      [
        "▁value",
        -9.646410942077637
      ],
      [
        "ino",
        -9.646736145019531
      ],
      [
        "▁că",
        -9.647565841674805
      ],
      [
        "▁przez",
        -9.647695541381836
      ],
      [
        "▁Te",
        -9.648869514465332
      ],
      [
        "▁let",
        -9.650032043457031
      ],
      [
        "▁también",
        -9.650494575500488
      ],
      [
        "han",
        -9.651543617248535
      ],
      [
        "ciones",
        -9.652174949645996
      ],
      [
        "▁ut",
        -9.652247428894045
      ],
      [
        "▁video",
        -9.65244483947754
      ],
      [
        "▁naar",
        -9.653093338012695
      ],
      [
        "ál",
        -9.656257629394531
      ],
      [
        "cz",
        -9.65647792816162
      ],
      [
        "▁cells",
        -9.656758308410645
      ],
      [
        "inen",
        -9.657343864440918
      ],
      [
        "▁ni",
        -9.658939361572266
      ],
      [
        "▁min",
        -9.65947723388672
      ],
      [
        "▁another",
        -9.660837173461914
      ],
      [
        "Y",
        -9.663153648376465
      ],
      [
        "ità",
        -9.663161277770996
      ],
      [
        "én",
        -9.663613319396973
      ],
      [
        "▁example",
        -9.663655281066896
      ],
      [
        "we",
        -9.66444492340088
      ],
      [
        "▁Q",
        -9.664627075195312
      ],
      [
        "▁list",
        -9.666132926940918
      ],
      [
        "lan",
        -9.66637134552002
      ],
      [
        "▁bien",
        -9.666461944580078
      ],
      [
        "art",
        -9.66746997833252
      ],
      [
        "▁до",
        -9.667903900146484
      ],
      [
        "tä",
        -9.668800354003906
      ],
      [
        "▁tre",
        -9.66940689086914
      ],
      [
        "▁analysis",
        -9.669864654541016
      ],
      [
        "▁Art",
        -9.670726776123049
      ],
      [
        "▁What",
        -9.671770095825195
      ],
      [
        "▁won",
        -9.673335075378418
      ],
      [
        "▁są",
        -9.673375129699709
      ],
      [
        "▁hij",
        -9.674493789672852
      ],
      [
        "ła",
        -9.675141334533691
      ],
      [
        "▁uz",
        -9.67601490020752
      ],
      [
        "mal",
        -9.676186561584473
      ],
      [
        "▁στη",
        -9.676652908325195
      ],
      [
        "▁sta",
        -9.67666244506836
      ],
      [
        "▁Od",
        -9.677767753601074
      ],
      [
        "▁User",
        -9.678472518920898
      ],
      [
        "▁sau",
        -9.678842544555664
      ],
      [
        "▁fu",
        -9.67894458770752
      ],
      [
        "▁przy",
        -9.678980827331545
      ],
      [
        "ram",
        -9.679226875305176
      ],
      [
        "ator",
        -9.680047988891602
      ],
      [
        "▁θα",
        -9.681208610534668
      ],
      [
        "ott",
        -9.681256294250488
      ],
      [
        "sten",
        -9.681333541870115
      ],
      [
        "of",
        -9.68166732788086
      ],
      [
        "ise",
        -9.683449745178224
      ],
      [
        "▁might",
        -9.684953689575195
      ],
      [
        "▁prze",
        -9.685253143310549
      ],
      [
        "▁při",
        -9.6870756149292
      ],
      [
        "▁Por",
        -9.688411712646484
      ],
      [
        "sel",
        -9.68895435333252
      ],
      [
        "&",
        -9.689342498779297
      ],
      [
        "▁My",
        -9.68958854675293
      ],
      [
        "ah",
        -9.689632415771484
      ],
      [
        "▁från",
        -9.690218925476074
      ],
      [
        "▁ότι",
        -9.690611839294434
      ],
      [
        "▁super",
        -9.691595077514648
      ],
      [
        "▁j",
        -9.692334175109863
      ],
      [
        "In",
        -9.692461967468262
      ],
      [
        "ét",
        -9.692655563354492
      ],
      [
        "▁aber",
        -9.6927490234375
      ],
      [
        "▁mal",
        -9.693265914916992
      ],
      [
        "▁red",
        -9.693389892578123
      ],
      [
        "▁kar",
        -9.694092750549316
      ],
      [
        "▁Mo",
        -9.694109916687012
      ],
      [
        "▁В",
        -9.695085525512695
      ],
      [
        "par",
        -9.695775032043455
      ],
      [
        "Re",
        -9.695890426635742
      ],
      [
        "ala",
        -9.69643211364746
      ],
      [
        "▁given",
        -9.69782543182373
      ],
      [
        "nih",
        -9.698274612426758
      ],
      [
        "▁person",
        -9.69876766204834
      ],
      [
        "nych",
        -9.699223518371582
      ],
      [
        "ος",
        -9.700812339782717
      ],
      [
        "▁peut",
        -9.700839042663574
      ],
      [
        "▁»",
        -9.701269149780272
      ],
      [
        "tic",
        -9.702816009521484
      ],
      [
        "ico",
        -9.703116416931152
      ],
      [
        "▁national",
        -9.70349407196045
      ],
      [
        "▁ru",
        -9.70435905456543
      ],
      [
        "ło",
        -9.70574951171875
      ],
      [
        "▁cui",
        -9.70578670501709
      ],
      [
        "▁fost",
        -9.705842971801758
      ],
      [
        "mann",
        -9.70695686340332
      ],
      [
        "▁être",
        -9.707014083862305
      ],
      [
        "kor",
        -9.707728385925291
      ],
      [
        "▁Bo",
        -9.709918022155762
      ],
      [
        ">",
        -9.7102689743042
      ],
      [
        "▁{",
        -9.710634231567385
      ],
      [
        "▁votre",
        -9.71095085144043
      ],
      [
        "vor",
        -9.711068153381348
      ],
      [
        "ett",
        -9.71198844909668
      ],
      [
        "▁risk",
        -9.71208381652832
      ],
      [
        "▁effect",
        -9.712271690368652
      ],
      [
        "▁α",
        -9.713326454162598
      ],
      [
        "▁human",
        -9.713839530944824
      ],
      [
        "iv",
        -9.71401023864746
      ],
      [
        "zen",
        -9.714517593383787
      ],
      [
        "ė",
        -9.714604377746582
      ],
      [
        "▁provide",
        -9.714972496032717
      ],
      [
        "chi",
        -9.7160005569458
      ],
      [
        "▁period",
        -9.716014862060549
      ],
      [
        "car",
        -9.717853546142578
      ],
      [
        "▁play",
        -9.718032836914062
      ],
      [
        "kov",
        -9.718267440795898
      ],
      [
        "▁auto",
        -9.718356132507324
      ],
      [
        "▁ré",
        -9.718475341796877
      ],
      [
        "▁original",
        -9.719236373901367
      ],
      [
        "iert",
        -9.719539642333984
      ],
      [
        "▁raz",
        -9.71966552734375
      ],
      [
        "ové",
        -9.72194766998291
      ],
      [
        "ли",
        -9.72286319732666
      ],
      [
        "▁company",
        -9.723222732543944
      ],
      [
        "▁every",
        -9.723350524902344
      ],
      [
        "▁mm",
        -9.72433376312256
      ],
      [
        "ade",
        -9.726202964782717
      ],
      [
        "ieren",
        -9.726454734802246
      ],
      [
        "▁oraz",
        -9.726812362670898
      ],
      [
        "▁dla",
        -9.727412223815918
      ],
      [
        "▁så",
        -9.728517532348633
      ],
      [
        "if",
        -9.729378700256348
      ],
      [
        "▁open",
        -9.729447364807127
      ],
      [
        "lla",
        -9.729716300964355
      ],
      [
        "▁side",
        -9.72976016998291
      ],
      [
        "▁better",
        -9.730673789978027
      ],
      [
        "lé",
        -9.731151580810549
      ],
      [
        "▁haben",
        -9.732227325439451
      ],
      [
        "La",
        -9.732305526733398
      ],
      [
        "▁cost",
        -9.732917785644531
      ],
      [
        "cia",
        -9.73365306854248
      ],
      [
        "tek",
        -9.734472274780272
      ],
      [
        "▁few",
        -9.735610008239746
      ],
      [
        "▁fait",
        -9.737398147583008
      ],
      [
        "▁cette",
        -9.738672256469728
      ],
      [
        "ag",
        -9.740464210510254
      ],
      [
        "▁City",
        -9.741454124450684
      ],
      [
        "▁dar",
        -9.742207527160645
      ],
      [
        "▁face",
        -9.742619514465332
      ],
      [
        "▁Ce",
        -9.743621826171877
      ],
      [
        "▁Mi",
        -9.743793487548828
      ],
      [
        "▁Pe",
        -9.743837356567385
      ],
      [
        "▁States",
        -9.744054794311523
      ],
      [
        "ap",
        -9.744409561157228
      ],
      [
        "▁tem",
        -9.744678497314451
      ],
      [
        "▁Paul",
        -9.744811058044434
      ],
      [
        "▁Can",
        -9.746197700500488
      ],
      [
        "▁Ni",
        -9.74774932861328
      ],
      [
        "▁<",
        -9.748565673828123
      ],
      [
        "▁desde",
        -9.749245643615724
      ],
      [
        "met",
        -9.749628067016602
      ],
      [
        "port",
        -9.749784469604492
      ],
      [
        "▁function",
        -9.750442504882812
      ],
      [
        "▁contra",
        -9.751577377319336
      ],
      [
        "fa",
        -9.7516450881958
      ],
      [
        "▁media",
        -9.75167751312256
      ],
      [
        "à",
        -9.75197696685791
      ],
      [
        "org",
        -9.75229263305664
      ],
      [
        "▁ένα",
        -9.7528076171875
      ],
      [
        "▁Car",
        -9.753408432006836
      ],
      [
        "ng",
        -9.753966331481934
      ],
      [
        "▁low",
        -9.754121780395508
      ],
      [
        "▁population",
        -9.755760192871094
      ],
      [
        "▁vez",
        -9.756348609924316
      ],
      [
        "▁são",
        -9.75658130645752
      ],
      [
        "▁specific",
        -9.7567138671875
      ],
      [
        "ila",
        -9.756775856018066
      ],
      [
        "▁suo",
        -9.757941246032717
      ],
      [
        "▁April",
        -9.758975982666016
      ],
      [
        "fer",
        -9.759930610656738
      ],
      [
        "▁Men",
        -9.761480331420898
      ],
      [
        "issa",
        -9.7627534866333
      ],
      [
        "van",
        -9.762861251831056
      ],
      [
        "▁tot",
        -9.763717651367188
      ],
      [
        "▁material",
        -9.763992309570312
      ],
      [
        "▁question",
        -9.764167785644531
      ],
      [
        "*",
        -9.764703750610352
      ],
      [
        "▁μια",
        -9.767831802368164
      ],
      [
        "form",
        -9.767870903015137
      ],
      [
        "▁essere",
        -9.767905235290527
      ],
      [
        "time",
        -9.76914119720459
      ],
      [
        "▁tri",
        -9.76974868774414
      ],
      [
        "ата",
        -9.769750595092772
      ],
      [
        "ής",
        -9.769858360290527
      ],
      [
        "ito",
        -9.770130157470703
      ],
      [
        "▁business",
        -9.770193099975586
      ],
      [
        "▁natural",
        -9.77043914794922
      ],
      [
        "▁grande",
        -9.770939826965332
      ],
      [
        "▁early",
        -9.770988464355469
      ],
      [
        "▁uno",
        -9.771089553833008
      ],
      [
        "▁available",
        -9.771688461303713
      ],
      [
        "▁pi",
        -9.77243995666504
      ],
      [
        "amente",
        -9.773175239562988
      ],
      [
        "▁children",
        -9.774352073669434
      ],
      [
        "▁noch",
        -9.775313377380373
      ],
      [
        "▁pode",
        -9.776678085327148
      ],
      [
        "▁France",
        -9.776751518249512
      ],
      [
        "▁nous",
        -9.776891708374023
      ],
      [
        "▁δεν",
        -9.777135848999023
      ],
      [
        "▁nad",
        -9.77749252319336
      ],
      [
        "▁Par",
        -9.778032302856444
      ],
      [
        "л",
        -9.77822494506836
      ],
      [
        "▁tempo",
        -9.780303955078123
      ],
      [
        "▁standard",
        -9.780939102172852
      ],
      [
        "▁sem",
        -9.781380653381348
      ],
      [
        "red",
        -9.781408309936523
      ],
      [
        "▁often",
        -9.781742095947266
      ],
      [
        "▁called",
        -9.783161163330078
      ],
      [
        "▁personal",
        -9.784502029418944
      ],
      [
        "ima",
        -9.784817695617676
      ],
      [
        "▁School",
        -9.784978866577148
      ],
      [
        "Q",
        -9.785365104675291
      ],
      [
        "▁full",
        -9.785400390625
      ],
      [
        "▁project",
        -9.785938262939451
      ],
      [
        "▁region",
        -9.786173820495604
      ],
      [
        "▁lub",
        -9.786306381225586
      ],
      [
        "kel",
        -9.788077354431152
      ],
      [
        "use",
        -9.788078308105469
      ],
      [
        "▁pela",
        -9.788129806518556
      ],
      [
        "▁vid",
        -9.788738250732422
      ],
      [
        "lich",
        -9.788816452026367
      ],
      [
        "▁performance",
        -9.789250373840332
      ],
      [
        "▁International",
        -9.791775703430176
      ],
      [
        "▁South",
        -9.792808532714844
      ],
      [
        "▁West",
        -9.7930326461792
      ],
      [
        "▁pero",
        -9.79371452331543
      ],
      [
        "vat",
        -9.794649124145508
      ],
      [
        "▁ved",
        -9.794944763183594
      ],
      [
        "ique",
        -9.795147895812988
      ],
      [
        "▁September",
        -9.795204162597656
      ],
      [
        "mon",
        -9.795682907104492
      ],
      [
        "▁Α",
        -9.7957763671875
      ],
      [
        "▁Os",
        -9.79634952545166
      ],
      [
        "▁pot",
        -9.796839714050291
      ],
      [
        "▁wordt",
        -9.796846389770508
      ],
      [
        "π",
        -9.797730445861816
      ],
      [
        "net",
        -9.79873275756836
      ],
      [
        "▁kad",
        -9.79974365234375
      ],
      [
        "▁government",
        -9.80222225189209
      ],
      [
        "▁role",
        -9.802674293518066
      ],
      [
        "ella",
        -9.803037643432615
      ],
      [
        "▁land",
        -9.803598403930664
      ],
      [
        "▁put",
        -9.804004669189451
      ],
      [
        "mp",
        -9.804627418518066
      ],
      [
        "ismo",
        -9.804916381835938
      ],
      [
        "▁left",
        -9.805922508239746
      ],
      [
        "▁series",
        -9.807806968688965
      ],
      [
        "▁leur",
        -9.808293342590332
      ],
      [
        "lig",
        -9.808823585510254
      ],
      [
        "ice",
        -9.809268951416016
      ],
      [
        "▁services",
        -9.809313774108888
      ],
      [
        "▁treatment",
        -9.809463500976562
      ],
      [
        "▁при",
        -9.811049461364746
      ],
      [
        "ec",
        -9.811956405639648
      ],
      [
        "ating",
        -9.812016487121582
      ],
      [
        "▁State",
        -9.812115669250488
      ],
      [
        "▁method",
        -9.812646865844728
      ],
      [
        "los",
        -9.812810897827148
      ],
      [
        "▁vagy",
        -9.813498497009276
      ],
      [
        "▁great",
        -9.814648628234863
      ],
      [
        "▁field",
        -9.815009117126465
      ],
      [
        "▁Film",
        -9.815552711486816
      ],
      [
        "kt",
        -9.816197395324709
      ],
      [
        "enia",
        -9.816486358642578
      ],
      [
        "▁March",
        -9.817070960998535
      ],
      [
        "▁web",
        -9.81808376312256
      ],
      [
        "▁cell",
        -9.818342208862305
      ],
      [
        "▁became",
        -9.818500518798828
      ],
      [
        "rá",
        -9.819784164428713
      ],
      [
        "ff",
        -9.820966720581056
      ],
      [
        "▁students",
        -9.822528839111328
      ],
      [
        "und",
        -9.822752952575684
      ],
      [
        "▁higher",
        -9.822802543640137
      ],
      [
        "▁significant",
        -9.8240966796875
      ],
      [
        "▁book",
        -9.82599925994873
      ],
      [
        "ната",
        -9.82601261138916
      ],
      [
        "▁blev",
        -9.827569007873535
      ],
      [
        "▁age",
        -9.828030586242676
      ],
      [
        "▁bez",
        -9.82827091217041
      ],
      [
        "▁deze",
        -9.828508377075195
      ],
      [
        "▁David",
        -9.832375526428224
      ],
      [
        "τ",
        -9.832598686218262
      ],
      [
        "▁nebo",
        -9.834187507629396
      ],
      [
        "▁É",
        -9.834198951721191
      ],
      [
        "▁studies",
        -9.834354400634766
      ],
      [
        "▁dit",
        -9.834921836853027
      ],
      [
        "born",
        -9.837034225463867
      ],
      [
        "▁range",
        -9.837441444396973
      ],
      [
        "og",
        -9.838680267333984
      ],
      [
        "ните",
        -9.83871078491211
      ],
      [
        "▁volt",
        -9.838911056518556
      ],
      [
        "▁similar",
        -9.839311599731444
      ],
      [
        "▁Her",
        -9.839947700500488
      ],
      [
        "vad",
        -9.841682434082031
      ],
      [
        "▁sistema",
        -9.841712951660156
      ],
      [
        "ern",
        -9.841724395751951
      ],
      [
        "▁Tu",
        -9.843331336975098
      ],
      [
        "▁pan",
        -9.843439102172852
      ],
      [
        "kom",
        -9.843700408935549
      ],
      [
        "▁production",
        -9.843751907348633
      ],
      [
        "▁hier",
        -9.843871116638184
      ],
      [
        "▁various",
        -9.844353675842283
      ],
      [
        "▁val",
        -9.845329284667969
      ],
      [
        "ουν",
        -9.845402717590332
      ],
      [
        "iden",
        -9.845487594604492
      ],
      [
        "iva",
        -9.845656394958496
      ],
      [
        "▁años",
        -9.84639835357666
      ],
      [
        "▁free",
        -9.846505165100098
      ],
      [
        "gy",
        -9.846975326538086
      ],
      [
        "cer",
        -9.84758758544922
      ],
      [
        "ani",
        -9.84791374206543
      ],
      [
        "ť",
        -9.847992897033691
      ],
      [
        "▁Op",
        -9.848596572875977
      ],
      [
        "▁Paris",
        -9.848943710327148
      ],
      [
        "▁também",
        -9.849108695983888
      ],
      [
        "har",
        -9.849862098693848
      ],
      [
        "mas",
        -9.850152015686035
      ],
      [
        "▁prima",
        -9.852356910705566
      ],
      [
        "amento",
        -9.85244369506836
      ],
      [
        "▁position",
        -9.853516578674316
      ],
      [
        "▁His",
        -9.854605674743652
      ],
      [
        "▁ud",
        -9.85513973236084
      ],
      [
        "▁Ro",
        -9.856453895568848
      ],
      [
        "▁body",
        -9.856762886047363
      ],
      [
        "▁Com",
        -9.856781959533691
      ],
      [
        "▁importante",
        -9.857768058776855
      ],
      [
        "ons",
        -9.85834503173828
      ],
      [
        "dan",
        -9.85903549194336
      ],
      [
        "▁How",
        -9.86169147491455
      ],
      [
        "▁vida",
        -9.861696243286133
      ],
      [
        "▁bio",
        -9.862749099731444
      ],
      [
        "▁mo",
        -9.86341953277588
      ],
      [
        "▁andere",
        -9.863551139831545
      ],
      [
        "ev",
        -9.863859176635742
      ],
      [
        "▁finns",
        -9.864502906799316
      ],
      [
        "eren",
        -9.865272521972656
      ],
      [
        "▁November",
        -9.865400314331056
      ],
      [
        "rat",
        -9.865436553955078
      ],
      [
        "▁fa",
        -9.865533828735352
      ],
      [
        "▁Is",
        -9.866016387939451
      ],
      [
        "pre",
        -9.866181373596191
      ],
      [
        "▁light",
        -9.866533279418944
      ],
      [
        "▁gran",
        -9.867398262023926
      ],
      [
        "▁current",
        -9.868371963500977
      ],
      [
        "▁sul",
        -9.868852615356444
      ],
      [
        "▁trans",
        -9.868988037109377
      ],
      [
        "▁USA",
        -9.870610237121582
      ],
      [
        "▁next",
        -9.87135887145996
      ],
      [
        "tter",
        -9.871583938598633
      ],
      [
        "▁cm",
        -9.871795654296877
      ],
      [
        "isch",
        -9.87205982208252
      ],
      [
        "ari",
        -9.8722562789917
      ],
      [
        "▁Mit",
        -9.872469902038574
      ],
      [
        "ham",
        -9.87281322479248
      ],
      [
        "idad",
        -9.872814178466797
      ],
      [
        "ungen",
        -9.874645233154297
      ],
      [
        "▁further",
        -9.874733924865724
      ],
      [
        "imo",
        -9.874902725219728
      ],
      [
        "pl",
        -9.874964714050291
      ],
      [
        "ization",
        -9.876227378845217
      ],
      [
        "▁among",
        -9.877365112304688
      ],
      [
        "▁π",
        -9.877442359924316
      ],
      [
        "erna",
        -9.877535820007324
      ],
      [
        "▁Han",
        -9.877935409545898
      ],
      [
        "ros",
        -9.878389358520508
      ],
      [
        "▁With",
        -9.878769874572754
      ],
      [
        "▁pelo",
        -9.87880039215088
      ],
      [
        "▁species",
        -9.879080772399902
      ],
      [
        "▁energy",
        -9.88073444366455
      ],
      [
        "▁quando",
        -9.880772590637209
      ],
      [
        "▁maar",
        -9.882122039794922
      ],
      [
        "▁kor",
        -9.8823823928833
      ],
      [
        "ves",
        -9.883096694946287
      ],
      [
        "▁conditions",
        -9.883848190307615
      ],
      [
        "ла",
        -9.883870124816896
      ],
      [
        "tre",
        -9.884934425354004
      ],
      [
        "adas",
        -9.88499355316162
      ],
      [
        "ός",
        -9.885507583618164
      ],
      [
        "int",
        -9.88564682006836
      ],
      [
        "ът",
        -9.886786460876465
      ],
      [
        "▁multi",
        -9.887598991394045
      ],
      [
        "ική",
        -9.887675285339355
      ],
      [
        "▁Mu",
        -9.887824058532717
      ],
      [
        "▁Van",
        -9.88787078857422
      ],
      [
        "ω",
        -9.888059616088867
      ],
      [
        "▁club",
        -9.889277458190918
      ],
      [
        "kar",
        -9.889348983764648
      ],
      [
        " »",
        -9.88948917388916
      ],
      [
        "▁days",
        -9.891246795654297
      ],
      [
        "aria",
        -9.891292572021484
      ],
      [
        "ją",
        -9.891402244567873
      ],
      [
        "▁ή",
        -9.89163589477539
      ],
      [
        "▁cada",
        -9.891735076904297
      ],
      [
        "het",
        -9.89178466796875
      ],
      [
        "▁Um",
        -9.891815185546877
      ],
      [
        "][",
        -9.892346382141112
      ],
      [
        "▁wir",
        -9.892378807067873
      ],
      [
        "▁individual",
        -9.892648696899414
      ],
      [
        "▁going",
        -9.893640518188477
      ],
      [
        "▁run",
        -9.893671989440918
      ],
      [
        "▁deux",
        -9.894947052001951
      ],
      [
        "▁women",
        -9.895493507385254
      ],
      [
        "ksi",
        -9.89626693725586
      ],
      [
        "▁Vor",
        -9.89797019958496
      ],
      [
        "ring",
        -9.899243354797363
      ],
      [
        "ans",
        -9.89924430847168
      ],
      [
        "ija",
        -9.899540901184082
      ],
      [
        "ini",
        -9.899697303771973
      ],
      [
        "▁version",
        -9.900057792663574
      ],
      [
        "cal",
        -9.901164054870604
      ],
      [
        "jen",
        -9.901363372802734
      ],
      [
        "▁Ka",
        -9.903510093688965
      ],
      [
        "▁Σ",
        -9.904077529907228
      ],
      [
        "owe",
        -9.905170440673828
      ],
      [
        "▁major",
        -9.905349731445312
      ],
      [
        "▁along",
        -9.906131744384766
      ],
      [
        "▁etc",
        -9.907186508178713
      ],
      [
        "▁pat",
        -9.909956932067873
      ],
      [
        "▁above",
        -9.910000801086426
      ],
      [
        "▁really",
        -9.910415649414062
      ],
      [
        "▁naj",
        -9.910985946655272
      ],
      [
        "leg",
        -9.91112995147705
      ],
      [
        "▁band",
        -9.911282539367676
      ],
      [
        "▁That",
        -9.911469459533691
      ],
      [
        "zy",
        -9.911907196044922
      ],
      [
        "owych",
        -9.913891792297363
      ],
      [
        "▁vom",
        -9.913914680480955
      ],
      [
        "ania",
        -9.915831565856934
      ],
      [
        "ure",
        -9.91656494140625
      ],
      [
        "don",
        -9.916812896728516
      ],
      [
        "▁rate",
        -9.917397499084473
      ],
      [
        "nen",
        -9.917810440063477
      ],
      [
        "ções",
        -9.918310165405272
      ],
      [
        "out",
        -9.919122695922852
      ],
      [
        "ola",
        -9.919245719909668
      ],
      [
        "enie",
        -9.919785499572754
      ],
      [
        "▁Aus",
        -9.920077323913574
      ],
      [
        "ob",
        -9.920210838317873
      ],
      [
        "ého",
        -9.920332908630373
      ],
      [
        "▁Kon",
        -9.920461654663086
      ],
      [
        "▁jsou",
        -9.920934677124023
      ],
      [
        "▁space",
        -9.921299934387209
      ],
      [
        "▁rest",
        -9.921758651733398
      ],
      [
        "▁Ze",
        -9.921804428100586
      ],
      [
        "к",
        -9.921875953674316
      ],
      [
        "▁addition",
        -9.921972274780272
      ],
      [
        "▁normal",
        -9.922213554382324
      ],
      [
        "▁give",
        -9.922658920288086
      ],
      [
        "ných",
        -9.923666000366213
      ],
      [
        "ör",
        -9.9242582321167
      ],
      [
        "▁Ex",
        -9.92479419708252
      ],
      [
        "▁County",
        -9.92502784729004
      ],
      [
        "▁short",
        -9.925651550292969
      ],
      [
        "▁mer",
        -9.925811767578123
      ],
      [
        "▁Life",
        -9.927715301513672
      ],
      [
        "erne",
        -9.928177833557127
      ],
      [
        "д",
        -9.928690910339355
      ],
      [
        "ium",
        -9.929603576660156
      ],
      [
        "▁hun",
        -9.930745124816896
      ],
      [
        "▁questo",
        -9.930864334106444
      ],
      [
        "ия",
        -9.931234359741213
      ],
      [
        "br",
        -9.931307792663574
      ],
      [
        "▁again",
        -9.93206787109375
      ],
      [
        "▁δια",
        -9.932218551635742
      ],
      [
        "▁Fe",
        -9.933137893676758
      ],
      [
        "▁III",
        -9.933894157409668
      ],
      [
        "less",
        -9.93482494354248
      ],
      [
        "▁С",
        -9.93631649017334
      ],
      [
        "▁God",
        -9.936396598815918
      ],
      [
        "▁Jan",
        -9.937052726745604
      ],
      [
        "▁efter",
        -9.937979698181152
      ],
      [
        "▁Val",
        -9.93862533569336
      ],
      [
        "▁special",
        -9.939074516296388
      ],
      [
        "▁China",
        -9.939990997314451
      ],
      [
        "▁moment",
        -9.940515518188477
      ],
      [
        "area",
        -9.94113826751709
      ],
      [
        "▁Ben",
        -9.941170692443848
      ],
      [
        "ized",
        -9.942115783691406
      ],
      [
        "▁June",
        -9.9425630569458
      ],
      [
        "mis",
        -9.943537712097168
      ],
      [
        "▁potential",
        -9.944043159484863
      ],
      [
        "▁už",
        -9.944578170776367
      ],
      [
        "▁lot",
        -9.944726943969728
      ],
      [
        "ira",
        -9.944950103759766
      ],
      [
        "▁having",
        -9.945147514343262
      ],
      [
        "▁popular",
        -9.94517993927002
      ],
      [
        "ell",
        -9.945201873779297
      ],
      [
        "ero",
        -9.945502281188965
      ],
      [
        "▁bar",
        -9.94793701171875
      ],
      [
        "▁access",
        -9.948620796203612
      ],
      [
        "lik",
        -9.949341773986816
      ],
      [
        "hr",
        -9.949809074401855
      ],
      [
        "▁Ho",
        -9.950190544128418
      ],
      [
        "▁held",
        -9.950745582580566
      ],
      [
        "▁että",
        -9.951173782348633
      ],
      [
        "▁över",
        -9.95197582244873
      ],
      [
        "▁motor",
        -9.9527006149292
      ],
      [
        "zioni",
        -9.952717781066896
      ],
      [
        ".[",
        -9.952902793884276
      ],
      [
        "nou",
        -9.95294189453125
      ],
      [
        "qui",
        -9.953237533569336
      ],
      [
        "▁music",
        -9.953657150268556
      ],
      [
        "ár",
        -9.954084396362305
      ],
      [
        "▁working",
        -9.954172134399414
      ],
      [
        "μ",
        -9.954276084899902
      ],
      [
        "▁Este",
        -9.955270767211914
      ],
      [
        "▁kot",
        -9.95619297027588
      ],
      [
        "▁central",
        -9.956472396850586
      ],
      [
        "kan",
        -9.956624031066896
      ],
      [
        "▁common",
        -9.956751823425291
      ],
      [
        "bre",
        -9.957048416137695
      ],
      [
        "är",
        -9.95715045928955
      ],
      [
        "▁ήταν",
        -9.957895278930664
      ],
      [
        "ait",
        -9.958270072937012
      ],
      [
        "iste",
        -9.958659172058104
      ],
      [
        "iga",
        -9.959029197692873
      ],
      [
        "▁todos",
        -9.959394454956056
      ],
      [
        "▁−",
        -9.959623336791992
      ],
      [
        "▁London",
        -9.960270881652832
      ],
      [
        "▁North",
        -9.960275650024414
      ],
      [
        "▁Ba",
        -9.960593223571776
      ],
      [
        "▁look",
        -9.960814476013184
      ],
      [
        "▁vai",
        -9.960947036743164
      ],
      [
        "▁heeft",
        -9.961076736450195
      ],
      [
        "▁impact",
        -9.961872100830078
      ],
      [
        "▁vers",
        -9.961912155151367
      ],
      [
        "mat",
        -9.962320327758787
      ],
      [
        "▁structure",
        -9.962339401245115
      ],
      [
        "igen",
        -9.963263511657717
      ],
      [
        "ien",
        -9.963884353637695
      ],
      [
        "nos",
        -9.963909149169922
      ],
      [
        "sky",
        -9.964350700378418
      ],
      [
        "ées",
        -9.964438438415527
      ],
      [
        "▁experience",
        -9.964592933654783
      ],
      [
        "▁vo",
        -9.964646339416504
      ],
      [
        "▁Robert",
        -9.96525764465332
      ],
      [
        "▁În",
        -9.966188430786133
      ],
      [
        "tive",
        -9.966826438903809
      ],
      [
        "ną",
        -9.96763515472412
      ],
      [
        "▁able",
        -9.9681978225708
      ],
      [
        "▁sz",
        -9.968371391296388
      ],
      [
        "▁July",
        -9.968920707702637
      ],
      [
        "п",
        -9.96914291381836
      ],
      [
        "▁yra",
        -9.969215393066406
      ],
      [
        "“,",
        -9.969231605529783
      ],
      [
        "▁mod",
        -9.969666481018066
      ],
      [
        "či",
        -9.969748497009276
      ],
      [
        "▁Ci",
        -9.970949172973633
      ],
      [
        "▁General",
        -9.970952033996582
      ],
      [
        "▁increase",
        -9.971047401428224
      ],
      [
        "ble",
        -9.97226905822754
      ],
      [
        "bel",
        -9.9734468460083
      ],
      [
        "▁become",
        -9.973576545715332
      ],
      [
        "▁Star",
        -9.974081993103027
      ],
      [
        "ш",
        -9.974390029907228
      ],
      [
        "tte",
        -9.974682807922363
      ],
      [
        "mit",
        -9.975366592407228
      ],
      [
        "nde",
        -9.9753999710083
      ],
      [
        "▁leg",
        -9.97544002532959
      ],
      [
        "▁times",
        -9.977566719055176
      ],
      [
        "tie",
        -9.9791898727417
      ],
      [
        "▁things",
        -9.980338096618652
      ],
      [
        "ika",
        -9.980441093444824
      ],
      [
        "ville",
        -9.98053741455078
      ],
      [
        "▁course",
        -9.981980323791504
      ],
      [
        "▁making",
        -9.982186317443848
      ],
      [
        "▁played",
        -9.98218822479248
      ],
      [
        "▁Park",
        -9.982275009155272
      ],
      [
        "▁Π",
        -9.982295989990234
      ],
      [
        "▁fl",
        -9.98328685760498
      ],
      [
        "▁pra",
        -9.98336124420166
      ],
      [
        "ši",
        -9.983996391296388
      ],
      [
        "▁hasta",
        -9.984065055847168
      ],
      [
        "▁Pi",
        -9.9843111038208
      ],
      [
        "▁points",
        -9.9843111038208
      ],
      [
        "ran",
        -9.984631538391112
      ],
      [
        "ama",
        -9.984784126281738
      ],
      [
        "▁city",
        -9.9852876663208
      ],
      [
        "ят",
        -9.985369682312012
      ],
      [
        "αν",
        -9.985648155212402
      ],
      [
        "▁▁▁▁▁",
        -9.98650360107422
      ],
      [
        "▁community",
        -9.986534118652344
      ],
      [
        "▁means",
        -9.987313270568848
      ],
      [
        "▁onder",
        -9.987465858459473
      ],
      [
        "dal",
        -9.988595962524414
      ],
      [
        "▁tout",
        -9.989481925964355
      ],
      [
        "▁history",
        -9.99032974243164
      ],
      [
        "ador",
        -9.990862846374512
      ],
      [
        "▁casa",
        -9.991671562194824
      ],
      [
        "è",
        -9.992228507995604
      ],
      [
        "▁Saint",
        -9.99223804473877
      ],
      [
        "ē",
        -9.992952346801758
      ],
      [
        "▁shown",
        -9.993104934692385
      ],
      [
        "▁tiene",
        -9.993258476257324
      ],
      [
        "▁January",
        -9.99345874786377
      ],
      [
        "▁vie",
        -9.993471145629885
      ],
      [
        "ish",
        -9.993521690368652
      ],
      [
        "tan",
        -9.994003295898438
      ],
      [
        "▁approach",
        -9.994260787963867
      ],
      [
        "▁always",
        -9.9944486618042
      ],
      [
        "▁product",
        -9.99445629119873
      ],
      [
        "nosti",
        -9.996089935302734
      ],
      [
        "▁term",
        -9.996665000915527
      ],
      [
        "▁mehr",
        -9.996689796447754
      ],
      [
        "nut",
        -9.99763298034668
      ],
      [
        "ande",
        -9.998002052307127
      ],
      [
        "ния",
        -9.998294830322266
      ],
      [
        "nost",
        -9.998324394226074
      ],
      [
        "▁air",
        -9.99866008758545
      ],
      [
        "ya",
        -9.99919319152832
      ],
      [
        "ost",
        -9.99987506866455
      ],
      [
        "▁least",
        -9.999994277954102
      ],
      [
        "ties",
        -10.00058364868164
      ],
      [
        "▁star",
        -10.001121520996094
      ],
      [
        "sse",
        -10.001978874206545
      ],
      [
        "▁lower",
        -10.00204086303711
      ],
      [
        "▁upp",
        -10.0023775100708
      ],
      [
        "▁même",
        -10.003446578979492
      ],
      [
        "▁Jo",
        -10.00356674194336
      ],
      [
        "pen",
        -10.004011154174805
      ],
      [
        "▁απο",
        -10.00410270690918
      ],
      [
        "▁ces",
        -10.00478744506836
      ],
      [
        "▁something",
        -10.005457878112791
      ],
      [
        "▁Land",
        -10.005681037902832
      ],
      [
        "▁które",
        -10.00572395324707
      ],
      [
        "ovi",
        -10.0082368850708
      ],
      [
        "▁ako",
        -10.008796691894531
      ],
      [
        "▁ihre",
        -10.009708404541016
      ],
      [
        "▁todo",
        -10.00987148284912
      ],
      [
        "aux",
        -10.00998878479004
      ],
      [
        "▁serie",
        -10.010775566101074
      ],
      [
        "▁global",
        -10.010913848876951
      ],
      [
        "rio",
        -10.01098346710205
      ],
      [
        "▁Martin",
        -10.011564254760742
      ],
      [
        "▁future",
        -10.012144088745115
      ],
      [
        "rd",
        -10.013312339782717
      ],
      [
        "▁bit",
        -10.013327598571776
      ],
      [
        "ona",
        -10.01367473602295
      ],
      [
        ": ",
        -10.014554023742676
      ],
      [
        "▁size",
        -10.015098571777344
      ],
      [
        "▁TV",
        -10.01762866973877
      ],
      [
        "▁επι",
        -10.017980575561523
      ],
      [
        "▁Ob",
        -10.018027305603027
      ],
      [
        "ovat",
        -10.018101692199709
      ],
      [
        "▁country",
        -10.018525123596191
      ],
      [
        "▁included",
        -10.01860809326172
      ],
      [
        "ša",
        -10.0187349319458
      ],
      [
        "zer",
        -10.018784523010254
      ],
      [
        "▁took",
        -10.019579887390137
      ],
      [
        "′",
        -10.02000904083252
      ],
      [
        "ras",
        -10.020036697387695
      ],
      [
        "▁text",
        -10.020160675048828
      ],
      [
        "pu",
        -10.021087646484377
      ],
      [
        "▁little",
        -10.021161079406738
      ],
      [
        "osa",
        -10.02236270904541
      ],
      [
        "▁které",
        -10.0230073928833
      ],
      [
        "že",
        -10.023226737976074
      ],
      [
        "▁member",
        -10.023635864257812
      ],
      [
        "▁extra",
        -10.02609634399414
      ],
      [
        "ò",
        -10.026449203491213
      ],
      [
        "chen",
        -10.026792526245115
      ],
      [
        "▁Mal",
        -10.027152061462402
      ],
      [
        "▁ses",
        -10.02786922454834
      ],
      [
        "ori",
        -10.028853416442873
      ],
      [
        "▁Peter",
        -10.029065132141112
      ],
      [
        "ech",
        -10.029891967773438
      ],
      [
        "▁content",
        -10.0310640335083
      ],
      [
        "▁zo",
        -10.031356811523438
      ],
      [
        "▁Cu",
        -10.03180694580078
      ],
      [
        "▁past",
        -10.031851768493652
      ],
      [
        "ence",
        -10.031858444213867
      ],
      [
        "▁particular",
        -10.032017707824709
      ],
      [
        "▁key",
        -10.032136917114258
      ],
      [
        "ono",
        -10.033072471618652
      ],
      [
        "▁October",
        -10.033414840698242
      ],
      [
        "ü",
        -10.03359317779541
      ],
      [
        "▁Las",
        -10.034250259399414
      ],
      [
        "▁building",
        -10.034808158874512
      ],
      [
        "▁software",
        -10.034905433654783
      ],
      [
        "▁Sam",
        -10.035164833068848
      ],
      [
        "Le",
        -10.035326957702637
      ],
      [
        "tur",
        -10.035894393920898
      ],
      [
        "▁caso",
        -10.036559104919434
      ],
      [
        "ικό",
        -10.036670684814451
      ],
      [
        "yl",
        -10.036696434020996
      ],
      [
        "rie",
        -10.036852836608888
      ],
      [
        "▁levels",
        -10.037096977233888
      ],
      [
        "▁ως",
        -10.03730583190918
      ],
      [
        "▁Zeit",
        -10.037647247314451
      ],
      [
        "och",
        -10.037712097167969
      ],
      [
        "▁never",
        -10.03846263885498
      ],
      [
        " (",
        -10.038480758666992
      ],
      [
        "▁Sz",
        -10.038982391357422
      ],
      [
        "▁▁▁▁▁▁",
        -10.03937816619873
      ],
      [
        "tin",
        -10.039443969726562
      ],
      [
        "ře",
        -10.040326118469238
      ],
      [
        "lä",
        -10.040474891662598
      ],
      [
        "▁James",
        -10.040769577026367
      ],
      [
        "▁old",
        -10.040789604187012
      ],
      [
        "led",
        -10.041899681091309
      ],
      [
        "ful",
        -10.0419340133667
      ],
      [
        "▁kun",
        -10.042162895202637
      ],
      [
        "idade",
        -10.04226779937744
      ],
      [
        "▁consider",
        -10.042377471923828
      ],
      [
        "ep",
        -10.042582511901855
      ],
      [
        "▁simple",
        -10.042643547058104
      ],
      [
        "▁art",
        -10.042672157287598
      ],
      [
        "▁across",
        -10.042869567871094
      ],
      [
        "ки",
        -10.042898178100586
      ],
      [
        "ins",
        -10.043057441711426
      ],
      [
        "▁fact",
        -10.043183326721191
      ],
      [
        "nom",
        -10.044086456298828
      ],
      [
        "▁Red",
        -10.0442476272583
      ],
      [
        "än",
        -10.04434299468994
      ],
      [
        "▁pred",
        -10.04455280303955
      ],
      [
        "▁ikke",
        -10.044858932495115
      ],
      [
        "▁mundo",
        -10.045694351196287
      ],
      [
        "▁...",
        -10.04578971862793
      ],
      [
        "tos",
        -10.046338081359863
      ],
      [
        "▁Google",
        -10.047645568847656
      ],
      [
        "▁less",
        -10.048460006713867
      ],
      [
        "por",
        -10.049213409423828
      ],
      [
        "ín",
        -10.049361228942873
      ],
      [
        "β",
        -10.049518585205078
      ],
      [
        "],",
        -10.049842834472656
      ],
      [
        "▁associated",
        -10.04996109008789
      ],
      [
        "▁στις",
        -10.050024032592772
      ],
      [
        "▁modern",
        -10.050071716308594
      ],
      [
        "▁diese",
        -10.05023193359375
      ],
      [
        "▁Ri",
        -10.05109405517578
      ],
      [
        "ava",
        -10.051318168640137
      ],
      [
        "▁а",
        -10.051690101623535
      ],
      [
        "▁byl",
        -10.052257537841797
      ],
      [
        "▁color",
        -10.052485466003418
      ],
      [
        "▁received",
        -10.052940368652344
      ],
      [
        "▁Europe",
        -10.053281784057615
      ],
      [
        "tă",
        -10.053459167480469
      ],
      [
        "▁say",
        -10.05351448059082
      ],
      [
        "based",
        -10.053705215454102
      ],
      [
        "▁five",
        -10.053714752197266
      ],
      [
        "▁dalla",
        -10.054525375366213
      ],
      [
        "cho",
        -10.054594993591309
      ],
      [
        "▁located",
        -10.055036544799805
      ],
      [
        "▁Cor",
        -10.056992530822754
      ],
      [
        "▁degli",
        -10.057445526123049
      ],
      [
        "ίας",
        -10.057716369628906
      ],
      [
        "▁má",
        -10.058205604553224
      ],
      [
        "če",
        -10.058506965637209
      ],
      [
        "stra",
        -10.058690071105955
      ],
      [
        "▁contact",
        -10.05925178527832
      ],
      [
        "ová",
        -10.059621810913086
      ],
      [
        "▁Au",
        -10.060297012329102
      ],
      [
        "θ",
        -10.061031341552734
      ],
      [
        "▁Mark",
        -10.061187744140623
      ],
      [
        "all",
        -10.061845779418944
      ],
      [
        "▁Ve",
        -10.062118530273438
      ],
      [
        "▁wurden",
        -10.062859535217283
      ],
      [
        "ef",
        -10.062864303588867
      ],
      [
        "vy",
        -10.063358306884766
      ],
      [
        "▁December",
        -10.063611030578612
      ],
      [
        "▁προ",
        -10.063840866088867
      ],
      [
        "▁too",
        -10.063857078552246
      ],
      [
        "▁stato",
        -10.0648193359375
      ],
      [
        "wi",
        -10.065258026123049
      ],
      [
        "▁você",
        -10.06634521484375
      ],
      [
        "▁market",
        -10.066818237304688
      ],
      [
        "way",
        -10.067047119140623
      ],
      [
        "jan",
        -10.06735134124756
      ],
      [
        "▁loro",
        -10.067634582519531
      ],
      [
        "ské",
        -10.068070411682127
      ],
      [
        "ace",
        -10.0681734085083
      ],
      [
        "▁law",
        -10.068593978881836
      ],
      [
        "▁¿",
        -10.068819999694824
      ],
      [
        "▁Figure",
        -10.069864273071287
      ],
      [
        "dom",
        -10.069957733154297
      ],
      [
        "▁file",
        -10.07027530670166
      ],
      [
        "▁members",
        -10.07046890258789
      ],
      [
        "mento",
        -10.07083225250244
      ],
      [
        "▁certain",
        -10.071858406066896
      ],
      [
        "▁former",
        -10.07205867767334
      ],
      [
        "▁Har",
        -10.072471618652344
      ],
      [
        "κ",
        -10.072779655456545
      ],
      [
        "ци",
        -10.072863578796388
      ],
      [
        "τα",
        -10.072957992553713
      ],
      [
        "ette",
        -10.072970390319824
      ],
      [
        "▁From",
        -10.073233604431152
      ],
      [
        "▁či",
        -10.073784828186035
      ],
      [
        "▁ali",
        -10.074036598205566
      ],
      [
        "▁got",
        -10.074169158935549
      ],
      [
        "▁през",
        -10.07439422607422
      ],
      [
        "▁digital",
        -10.075668334960938
      ],
      [
        "▁Ke",
        -10.07599639892578
      ],
      [
        "oval",
        -10.07599925994873
      ],
      [
        "iu",
        -10.076414108276367
      ],
      [
        "▁League",
        -10.077027320861816
      ],
      [
        "▁également",
        -10.078350067138672
      ],
      [
        "▁tym",
        -10.078353881835938
      ],
      [
        "cher",
        -10.07839012145996
      ],
      [
        "▁live",
        -10.078861236572266
      ],
      [
        "ally",
        -10.079309463500977
      ],
      [
        "▁pol",
        -10.079755783081056
      ],
      [
        "ane",
        -10.079899787902832
      ],
      [
        "tele",
        -10.080305099487305
      ],
      [
        "р",
        -10.0805025100708
      ],
      [
        "▁management",
        -10.080561637878418
      ],
      [
        "▁Lu",
        -10.080751419067385
      ],
      [
        "▁Jahr",
        -10.08081340789795
      ],
      [
        "ix",
        -10.080918312072754
      ],
      [
        "▁või",
        -10.08241844177246
      ],
      [
        "▁Don",
        -10.082656860351562
      ],
      [
        "▁Of",
        -10.083785057067873
      ],
      [
        "nti",
        -10.084118843078612
      ],
      [
        "▁training",
        -10.084157943725586
      ],
      [
        "▁changes",
        -10.084678649902344
      ],
      [
        "▁sunt",
        -10.084813117980955
      ],
      [
        "oc",
        -10.085798263549805
      ],
      [
        "▁sous",
        -10.085992813110352
      ],
      [
        "off",
        -10.08655071258545
      ],
      [
        "tr",
        -10.087830543518066
      ],
      [
        "▁systems",
        -10.08811378479004
      ],
      [
        "▁head",
        -10.08912467956543
      ],
      [
        "▁това",
        -10.089198112487791
      ],
      [
        "ius",
        -10.090094566345217
      ],
      [
        "▁или",
        -10.090744972229004
      ],
      [
        "nis",
        -10.091021537780762
      ],
      [
        "г",
        -10.093259811401367
      ],
      [
        "▁wenn",
        -10.094038963317873
      ],
      [
        "▁Ch",
        -10.094071388244627
      ],
      [
        "▁Black",
        -10.094111442565918
      ],
      [
        "vet",
        -10.09428596496582
      ],
      [
        "▁Κ",
        -10.094499588012695
      ],
      [
        "▁class",
        -10.095063209533691
      ],
      [
        "bal",
        -10.09528636932373
      ],
      [
        "▁direct",
        -10.095547676086426
      ],
      [
        "pt",
        -10.097187042236328
      ],
      [
        "▁together",
        -10.097718238830566
      ],
      [
        "bb",
        -10.09786605834961
      ],
      [
        "▁quality",
        -10.098184585571287
      ],
      [
        "▁mean",
        -10.09832763671875
      ],
      [
        "av",
        -10.099116325378418
      ],
      [
        "з",
        -10.099579811096191
      ],
      [
        "▁complex",
        -10.100153923034668
      ],
      [
        "ré",
        -10.101335525512695
      ],
      [
        "▁plant",
        -10.101924896240234
      ],
      [
        "▁English",
        -10.102812767028809
      ],
      [
        "▁compared",
        -10.102815628051758
      ],
      [
        "â",
        -10.103235244750977
      ],
      [
        "▁pie",
        -10.103845596313477
      ],
      [
        "▁keep",
        -10.104304313659668
      ],
      [
        "ák",
        -10.104435920715332
      ],
      [
        "▁myös",
        -10.105354309082031
      ],
      [
        "▁Tri",
        -10.106049537658691
      ],
      [
        "▁waren",
        -10.106149673461914
      ],
      [
        "aj",
        -10.106796264648438
      ],
      [
        "sia",
        -10.107205390930176
      ],
      [
        "».",
        -10.10747241973877
      ],
      [
        "▁cause",
        -10.108041763305664
      ],
      [
        "▁effects",
        -10.108105659484863
      ],
      [
        "▁συν",
        -10.108163833618164
      ],
      [
        "▁στον",
        -10.10965061187744
      ],
      [
        "▁modo",
        -10.109867095947266
      ],
      [
        "▁William",
        -10.110754013061523
      ],
      [
        "tak",
        -10.111209869384766
      ],
      [
        "▁pl",
        -10.111677169799805
      ],
      [
        "set",
        -10.11297607421875
      ],
      [
        "ś",
        -10.113950729370115
      ],
      [
        "▁George",
        -10.11396598815918
      ],
      [
        "▁seine",
        -10.11406135559082
      ],
      [
        "▁nombre",
        -10.114502906799316
      ],
      [
        "▁considered",
        -10.11457347869873
      ],
      [
        "▁paper",
        -10.114636421203612
      ],
      [
        "tura",
        -10.114740371704102
      ],
      [
        "▁record",
        -10.115368843078612
      ],
      [
        "ér",
        -10.116232872009276
      ],
      [
        "▁mot",
        -10.117989540100098
      ],
      [
        "▁pu",
        -10.118762969970703
      ],
      [
        "owej",
        -10.11878490447998
      ],
      [
        "▁fil",
        -10.118844032287598
      ],
      [
        "▁lu",
        -10.119154930114746
      ],
      [
        "ario",
        -10.119226455688477
      ],
      [
        "▁expression",
        -10.121068000793455
      ],
      [
        "▁Maria",
        -10.121461868286133
      ],
      [
        "▁dieser",
        -10.121466636657717
      ],
      [
        "▁radio",
        -10.121956825256348
      ],
      [
        "▁Europa",
        -10.12248420715332
      ],
      [
        "▁donde",
        -10.122563362121582
      ],
      [
        "ces",
        -10.123021125793455
      ],
      [
        "▁mind",
        -10.123072624206545
      ],
      [
        "▁principal",
        -10.123740196228027
      ],
      [
        "▁Ad",
        -10.124258041381836
      ],
      [
        "ły",
        -10.124323844909668
      ],
      [
        "oli",
        -10.124452590942385
      ],
      [
        "▁report",
        -10.124468803405762
      ],
      [
        "ert",
        -10.12465000152588
      ],
      [
        "τε",
        -10.124735832214355
      ],
      [
        "▁Β",
        -10.124784469604492
      ],
      [
        "▁cases",
        -10.125040054321287
      ],
      [
        "▁Air",
        -10.12537956237793
      ],
      [
        "ти",
        -10.125567436218262
      ],
      [
        "▁reported",
        -10.125795364379885
      ],
      [
        "ás",
        -10.125831604003906
      ],
      [
        "▁ga",
        -10.125953674316406
      ],
      [
        "get",
        -10.126195907592772
      ],
      [
        "▁Michael",
        -10.126385688781738
      ],
      [
        "▁led",
        -10.126442909240724
      ],
      [
        "▁momento",
        -10.126700401306152
      ],
      [
        "▁които",
        -10.127296447753906
      ],
      [
        "▁third",
        -10.12933349609375
      ],
      [
        "▁British",
        -10.12934398651123
      ],
      [
        "▁pos",
        -10.130166053771973
      ],
      [
        "▁whether",
        -10.130460739135742
      ],
      [
        "﻿",
        -10.13071632385254
      ],
      [
        "owy",
        -10.130815505981444
      ],
      [
        "bor",
        -10.130925178527832
      ],
      [
        "▁στα",
        -10.131403923034668
      ],
      [
        "χ",
        -10.131864547729492
      ],
      [
        "ical",
        -10.13237190246582
      ],
      [
        "▁nog",
        -10.132925987243652
      ],
      [
        "▁Nach",
        -10.133096694946287
      ],
      [
        "ви",
        -10.133822441101074
      ],
      [
        "▁elle",
        -10.134580612182615
      ],
      [
        "▁micro",
        -10.134838104248049
      ],
      [
        "▁https",
        -10.134855270385742
      ],
      [
        "▁described",
        -10.135311126708984
      ],
      [
        "_{",
        -10.13535499572754
      ],
      [
        "▁love",
        -10.135374069213867
      ],
      [
        "▁either",
        -10.135469436645508
      ],
      [
        "vol",
        -10.135690689086914
      ],
      [
        "▁Auf",
        -10.13569450378418
      ],
      [
        "▁transport",
        -10.135750770568848
      ],
      [
        "▁eines",
        -10.135930061340332
      ],
      [
        "▁zwei",
        -10.136494636535645
      ],
      [
        "▁increased",
        -10.137079238891602
      ],
      [
        "▁came",
        -10.137102127075195
      ],
      [
        "vid",
        -10.137687683105469
      ],
      [
        "▁Sin",
        -10.13783359527588
      ],
      [
        "▁related",
        -10.138140678405762
      ],
      [
        "bit",
        -10.138398170471191
      ],
      [
        "▁groups",
        -10.138559341430664
      ],
      [
        "ete",
        -10.13900089263916
      ],
      [
        "De",
        -10.13997745513916
      ],
      [
        "uma",
        -10.141304969787598
      ],
      [
        "▁jeho",
        -10.142711639404297
      ],
      [
        "jem",
        -10.14292335510254
      ],
      [
        "mus",
        -10.143178939819336
      ],
      [
        "▁event",
        -10.14331340789795
      ],
      [
        "▁read",
        -10.143325805664062
      ],
      [
        "eau",
        -10.144349098205566
      ],
      [
        "▁tipo",
        -10.14449977874756
      ],
      [
        "▁aussi",
        -10.144573211669922
      ],
      [
        "tul",
        -10.144652366638184
      ],
      [
        "▁College",
        -10.14469051361084
      ],
      [
        "nego",
        -10.145177841186523
      ],
      [
        "dis",
        -10.145223617553713
      ],
      [
        "▁hard",
        -10.145612716674805
      ],
      [
        "▁code",
        -10.14566135406494
      ],
      [
        "▁section",
        -10.145852088928224
      ],
      [
        "▁lead",
        -10.146267890930176
      ],
      [
        "dia",
        -10.146352767944336
      ],
      [
        "dar",
        -10.146879196166992
      ],
      [
        "nym",
        -10.147032737731934
      ],
      [
        "liga",
        -10.147334098815918
      ],
      [
        "anti",
        -10.147631645202637
      ],
      [
        "▁required",
        -10.148466110229492
      ],
      [
        "▁pře",
        -10.148616790771484
      ],
      [
        "▁Als",
        -10.14974880218506
      ],
      [
        "nud",
        -10.150382995605469
      ],
      [
        "▁mon",
        -10.150975227355955
      ],
      [
        "▁joka",
        -10.151679039001465
      ],
      [
        "▁average",
        -10.151796340942385
      ],
      [
        "▁sowie",
        -10.152385711669922
      ],
      [
        "ities",
        -10.152777671813965
      ],
      [
        "▁create",
        -10.153403282165527
      ],
      [
        "▁House",
        -10.15347671508789
      ],
      [
        "▁bra",
        -10.154218673706056
      ],
      [
        "sche",
        -10.154501914978027
      ],
      [
        "tus",
        -10.154852867126465
      ],
      [
        "▁bol",
        -10.155118942260742
      ],
      [
        "▁dis",
        -10.1552152633667
      ],
      [
        "▁international",
        -10.155399322509766
      ],
      [
        "cio",
        -10.155415534973145
      ],
      [
        "▁anni",
        -10.155715942382812
      ],
      [
        "▁legal",
        -10.15623378753662
      ],
      [
        "▁Med",
        -10.15687370300293
      ],
      [
        "▁Mac",
        -10.157261848449709
      ],
      [
        "▁however",
        -10.157349586486816
      ],
      [
        "▁surface",
        -10.157854080200195
      ],
      [
        "fin",
        -10.15846824645996
      ],
      [
        "▁ke",
        -10.15962028503418
      ],
      [
        "af",
        -10.159622192382812
      ],
      [
        "vá",
        -10.159663200378418
      ],
      [
        "“.",
        -10.15981101989746
      ],
      [
        "▁Gu",
        -10.160167694091797
      ],
      [
        "▁Internet",
        -10.160499572753906
      ],
      [
        "▁kind",
        -10.160516738891602
      ],
      [
        "▁(*",
        -10.160719871520996
      ],
      [
        "via",
        -10.161453247070312
      ],
      [
        "▁sport",
        -10.16170597076416
      ],
      [
        "gue",
        -10.161767959594728
      ],
      [
        "▁activity",
        -10.161825180053713
      ],
      [
        "isten",
        -10.161920547485352
      ],
      [
        "▁β",
        -10.16240692138672
      ],
      [
        "▁może",
        -10.162692070007324
      ],
      [
        "▁Ru",
        -10.163825988769531
      ],
      [
        "▁sé",
        -10.16455078125
      ],
      [
        "ко",
        -10.164603233337402
      ],
      [
        "▁six",
        -10.164676666259766
      ],
      [
        "|",
        -10.16481590270996
      ],
      [
        "ло",
        -10.165282249450684
      ],
      [
        "▁idea",
        -10.165504455566406
      ],
      [
        "ić",
        -10.165874481201172
      ],
      [
        "▁lugar",
        -10.165934562683104
      ],
      [
        "▁Ti",
        -10.166643142700195
      ],
      [
        "ich",
        -10.167201042175291
      ],
      [
        "ova",
        -10.16771411895752
      ],
      [
        "▁positive",
        -10.16791534423828
      ],
      [
        "▁shows",
        -10.169025421142578
      ],
      [
        "sin",
        -10.169912338256836
      ],
      [
        "▁voi",
        -10.170136451721191
      ],
      [
        "▁dann",
        -10.170465469360352
      ],
      [
        "▁house",
        -10.171612739562988
      ],
      [
        "▁tiempo",
        -10.171734809875488
      ],
      [
        "▁sú",
        -10.172046661376951
      ],
      [
        "▁cuando",
        -10.173332214355469
      ],
      [
        "▁ag",
        -10.173396110534668
      ],
      [
        "▁internet",
        -10.173810958862305
      ],
      [
        "▁cancer",
        -10.173829078674316
      ],
      [
        "▁action",
        -10.174654960632324
      ],
      [
        "ās",
        -10.175397872924805
      ],
      [
        "▁meer",
        -10.175752639770508
      ],
      [
        "▁food",
        -10.17591667175293
      ],
      [
        "▁While",
        -10.176283836364746
      ],
      [
        "▁death",
        -10.17672348022461
      ],
      [
        "cí",
        -10.176827430725098
      ],
      [
        "tum",
        -10.177447319030762
      ],
      [
        "▁date",
        -10.177457809448242
      ],
      [
        "▁multiple",
        -10.178577423095703
      ],
      [
        "ente",
        -10.178770065307615
      ],
      [
        "ра",
        -10.178792953491213
      ],
      [
        "kal",
        -10.178829193115234
      ],
      [
        "▁match",
        -10.179001808166504
      ],
      [
        "aire",
        -10.179454803466797
      ],
      [
        "ial",
        -10.179512977600098
      ],
      [
        "▁Super",
        -10.17953109741211
      ],
      [
        "gan",
        -10.179644584655762
      ],
      [
        "mes",
        -10.17967414855957
      ],
      [
        "▁India",
        -10.180006980895996
      ],
      [
        "λ",
        -10.180058479309082
      ],
      [
        "▁already",
        -10.180309295654297
      ],
      [
        "▁Ku",
        -10.180486679077148
      ],
      [
        "▁near",
        -10.180668830871582
      ],
      [
        "▁Jean",
        -10.18123722076416
      ],
      [
        "▁autor",
        -10.1817626953125
      ],
      [
        "▁months",
        -10.18210792541504
      ],
      [
        "ingen",
        -10.182519912719728
      ],
      [
        "▁solution",
        -10.182576179504396
      ],
      [
        "▁village",
        -10.182777404785156
      ],
      [
        "ket",
        -10.182968139648438
      ],
      [
        "▁link",
        -10.183039665222168
      ],
      [
        "▁st",
        -10.183426856994627
      ],
      [
        "zel",
        -10.183438301086426
      ],
      [
        "▁può",
        -10.184581756591797
      ],
      [
        "▁self",
        -10.184871673583984
      ],
      [
        "▁published",
        -10.185487747192385
      ],
      [
        "▁bil",
        -10.185540199279783
      ],
      [
        "pp",
        -10.185552597045898
      ],
      [
        "▁economic",
        -10.185922622680664
      ],
      [
        "▁million",
        -10.185993194580078
      ],
      [
        "▁why",
        -10.186113357543944
      ],
      [
        "endo",
        -10.186437606811523
      ],
      [
        "▁built",
        -10.187029838562012
      ],
      [
        "▁tudi",
        -10.18718147277832
      ],
      [
        "▁primer",
        -10.187390327453612
      ],
      [
        "▁values",
        -10.188380241394045
      ],
      [
        "õ",
        -10.18857192993164
      ],
      [
        "ában",
        -10.188968658447266
      ],
      [
        "unk",
        -10.189539909362791
      ],
      [
        "▁source",
        -10.190237045288086
      ],
      [
        "nem",
        -10.190393447875977
      ],
      [
        "▁Act",
        -10.19055461883545
      ],
      [
        "▁Band",
        -10.190568923950195
      ],
      [
        "▁turn",
        -10.190760612487791
      ],
      [
        "▁protein",
        -10.190780639648438
      ],
      [
        "▁director",
        -10.191160202026367
      ],
      [
        "▁fast",
        -10.191312789916992
      ],
      [
        "ering",
        -10.192151069641112
      ],
      [
        "▁growth",
        -10.193144798278809
      ],
      [
        "ible",
        -10.193281173706056
      ],
      [
        "▁away",
        -10.19362735748291
      ],
      [
        "▁Some",
        -10.194257736206056
      ],
      [
        "tud",
        -10.194314002990724
      ],
      [
        "atie",
        -10.194583892822266
      ],
      [
        "▁Berlin",
        -10.194612503051758
      ],
      [
        "can",
        -10.195404052734377
      ],
      [
        "▁sol",
        -10.195476531982422
      ],
      [
        "▁Group",
        -10.195691108703612
      ],
      [
        "sh",
        -10.19627285003662
      ],
      [
        "ology",
        -10.196770668029783
      ],
      [
        "▁år",
        -10.197134017944336
      ],
      [
        "over",
        -10.197319984436035
      ],
      [
        "▁Chi",
        -10.19762897491455
      ],
      [
        "▁partir",
        -10.197864532470703
      ],
      [
        "tet",
        -10.19827938079834
      ],
      [
        "ret",
        -10.198638916015623
      ],
      [
        "ow",
        -10.19902229309082
      ],
      [
        "μα",
        -10.199756622314451
      ],
      [
        "▁February",
        -10.20020866394043
      ],
      [
        "▁article",
        -10.200312614440918
      ],
      [
        "▁ole",
        -10.201655387878418
      ],
      [
        "▁Ju",
        -10.201997756958008
      ],
      [
        "▁Pan",
        -10.202177047729492
      ],
      [
        "An",
        -10.20506763458252
      ],
      [
        "▁network",
        -10.205698013305664
      ],
      [
        "side",
        -10.205913543701172
      ],
      [
        "▁chi",
        -10.206438064575195
      ],
      [
        "▁stress",
        -10.206748962402344
      ],
      [
        "▁syn",
        -10.206857681274414
      ],
      [
        "▁Elle",
        -10.208208084106444
      ],
      [
        "▁disease",
        -10.208749771118164
      ],
      [
        "▁tanto",
        -10.209738731384276
      ],
      [
        "▁sido",
        -10.209850311279297
      ],
      [
        "▁account",
        -10.209906578063965
      ],
      [
        "▁año",
        -10.209928512573242
      ],
      [
        "▁European",
        -10.210286140441896
      ],
      [
        "▁Tra",
        -10.210432052612305
      ],
      [
        "stand",
        -10.211013793945312
      ],
      [
        "ség",
        -10.21108627319336
      ],
      [
        "wo",
        -10.211731910705566
      ],
      [
        "▁tras",
        -10.212115287780762
      ],
      [
        "▁See",
        -10.212343215942385
      ],
      [
        "eri",
        -10.212810516357422
      ],
      [
        "yn",
        -10.21341323852539
      ],
      [
        "▁pueden",
        -10.21363353729248
      ],
      [
        "fr",
        -10.21601676940918
      ],
      [
        "▁Zu",
        -10.2163724899292
      ],
      [
        "ding",
        -10.216583251953123
      ],
      [
        "▁features",
        -10.21747589111328
      ],
      [
        "▁First",
        -10.217731475830078
      ],
      [
        "www",
        -10.217952728271484
      ],
      [
        "▁capital",
        -10.217963218688965
      ],
      [
        "bri",
        -10.218615531921388
      ],
      [
        "ative",
        -10.218720436096191
      ],
      [
        "pel",
        -10.218778610229492
      ],
      [
        "▁А",
        -10.218957901000977
      ],
      [
        "▁Wie",
        -10.21902084350586
      ],
      [
        "▁professional",
        -10.219968795776367
      ],
      [
        "▁kunnen",
        -10.220206260681152
      ],
      [
        "▁aj",
        -10.220407485961914
      ],
      [
        "ės",
        -10.22084903717041
      ],
      [
        "▁δ",
        -10.22183609008789
      ],
      [
        "▁Ra",
        -10.222601890563965
      ],
      [
        "cs",
        -10.224278450012209
      ],
      [
        "▁others",
        -10.22449016571045
      ],
      [
        "▁element",
        -10.224626541137695
      ],
      [
        "gal",
        -10.224658966064451
      ],
      [
        "▁nei",
        -10.225034713745115
      ],
      [
        "ης",
        -10.225080490112305
      ],
      [
        "▁station",
        -10.225210189819336
      ],
      [
        "▁Windows",
        -10.225268363952637
      ],
      [
        "▁Nel",
        -10.225680351257324
      ],
      [
        "▁Bi",
        -10.225788116455078
      ],
      [
        "tta",
        -10.225896835327148
      ],
      [
        "▁mil",
        -10.226126670837402
      ],
      [
        "▁application",
        -10.226141929626465
      ],
      [
        "▁Charles",
        -10.226503372192385
      ],
      [
        "▁tan",
        -10.22666835784912
      ],
      [
        "▁vis",
        -10.226694107055664
      ],
      [
        "liche",
        -10.227530479431152
      ],
      [
        "οι",
        -10.227657318115234
      ],
      [
        "mel",
        -10.22806167602539
      ],
      [
        "▁terms",
        -10.228178977966309
      ],
      [
        "″",
        -10.228785514831545
      ],
      [
        "ű",
        -10.228852272033691
      ],
      [
        "▁released",
        -10.229147911071776
      ],
      [
        "vers",
        -10.22963523864746
      ],
      [
        "▁started",
        -10.229677200317385
      ],
      [
        "▁@",
        -10.229747772216797
      ],
      [
        "▁Wy",
        -10.230057716369627
      ],
      [
        "▁Hu",
        -10.230997085571287
      ],
      [
        "not",
        -10.231200218200684
      ],
      [
        "▁Not",
        -10.231201171875
      ],
      [
        "ată",
        -10.231410026550291
      ],
      [
        "▁performed",
        -10.232075691223145
      ],
      [
        "▁pay",
        -10.232738494873049
      ],
      [
        "▁works",
        -10.23297882080078
      ],
      [
        "lag",
        -10.233009338378906
      ],
      [
        "elt",
        -10.233552932739258
      ],
      [
        "lt",
        -10.233565330505373
      ],
      [
        "ování",
        -10.23395824432373
      ],
      [
        "▁response",
        -10.233980178833008
      ],
      [
        "▁bank",
        -10.234171867370604
      ],
      [
        "▁though",
        -10.234261512756348
      ],
      [
        "tri",
        -10.234804153442385
      ],
      [
        "▁front",
        -10.23520278930664
      ],
      [
        "▁began",
        -10.235336303710938
      ],
      [
        "▁provided",
        -10.23562717437744
      ],
      [
        "▁ti",
        -10.23577880859375
      ],
      [
        "▁seiner",
        -10.236161231994627
      ],
      [
        "▁Post",
        -10.236618995666504
      ],
      [
        "▁Kor",
        -10.237030029296877
      ],
      [
        "ους",
        -10.237138748168944
      ],
      [
        "▁CD",
        -10.23761749267578
      ],
      [
        "▁€",
        -10.237754821777344
      ],
      [
        "▁tam",
        -10.237945556640623
      ],
      [
        "▁areas",
        -10.238365173339844
      ],
      [
        "▁River",
        -10.238853454589844
      ],
      [
        "ön",
        -10.238872528076172
      ],
      [
        "▁ανα",
        -10.239026069641112
      ],
      [
        "▁half",
        -10.239333152770996
      ],
      [
        "▁faire",
        -10.239346504211426
      ],
      [
        "▁try",
        -10.23949146270752
      ],
      [
        "▁review",
        -10.239500999450684
      ],
      [
        "▁Fa",
        -10.240242958068848
      ],
      [
        "▁bet",
        -10.24046516418457
      ],
      [
        "ris",
        -10.240602493286133
      ],
      [
        "▁distribution",
        -10.2411470413208
      ],
      [
        "lar",
        -10.242090225219728
      ],
      [
        "▁learning",
        -10.24248218536377
      ],
      [
        "hy",
        -10.243099212646484
      ],
      [
        "▁Press",
        -10.24370002746582
      ],
      [
        "▁German",
        -10.244059562683104
      ],
      [
        "▁sent",
        -10.24527359008789
      ],
      [
        "%)",
        -10.245391845703123
      ],
      [
        "▁Pu",
        -10.245970726013184
      ],
      [
        "▁ju",
        -10.246861457824709
      ],
      [
        "▁Thomas",
        -10.247028350830078
      ],
      [
        "iska",
        -10.24740505218506
      ],
      [
        "nas",
        -10.247594833374023
      ],
      [
        "vu",
        -10.247937202453612
      ],
      [
        "▁district",
        -10.24797248840332
      ],
      [
        "ικά",
        -10.248048782348633
      ],
      [
        "air",
        -10.248231887817385
      ],
      [
        "tis",
        -10.248316764831545
      ],
      [
        "fo",
        -10.24850368499756
      ],
      [
        "▁kui",
        -10.24851894378662
      ],
      [
        "ip",
        -10.24870777130127
      ],
      [
        "▁Company",
        -10.248888969421388
      ],
      [
        "▁Canada",
        -10.248913764953612
      ],
      [
        "pal",
        -10.249159812927246
      ],
      [
        "ení",
        -10.249276161193848
      ],
      [
        "▁Nu",
        -10.249920845031738
      ],
      [
        "lat",
        -10.25035572052002
      ],
      [
        "▁zwischen",
        -10.250444412231444
      ],
      [
        "▁sure",
        -10.250890731811523
      ],
      [
        "▁vara",
        -10.251169204711914
      ],
      [
        "εί",
        -10.251855850219728
      ],
      [
        "dra",
        -10.251970291137695
      ],
      [
        "«",
        -10.251975059509276
      ],
      [
        "ká",
        -10.252050399780272
      ],
      [
        "▁done",
        -10.25228500366211
      ],
      [
        "▁add",
        -10.25269603729248
      ],
      [
        "▁Sal",
        -10.252703666687012
      ],
      [
        "ivo",
        -10.252944946289062
      ],
      [
        "vit",
        -10.253087043762209
      ],
      [
        "▁premier",
        -10.25369358062744
      ],
      [
        "ein",
        -10.25370979309082
      ],
      [
        "▁ovat",
        -10.254497528076172
      ],
      [
        "▁Inter",
        -10.254762649536133
      ],
      [
        "▁zá",
        -10.256499290466309
      ],
      [
        "▁κατά",
        -10.256582260131836
      ],
      [
        "▁ch",
        -10.256601333618164
      ],
      [
        "▁έχει",
        -10.257145881652832
      ],
      [
        "▁image",
        -10.257323265075684
      ],
      [
        "ví",
        -10.257389068603516
      ],
      [
        "▁Bre",
        -10.25830364227295
      ],
      [
        "▁below",
        -10.258306503295898
      ],
      [
        "tí",
        -10.258535385131836
      ],
      [
        "▁born",
        -10.258744239807127
      ],
      [
        "▁fine",
        -10.258996963500977
      ],
      [
        "▁col",
        -10.259868621826172
      ],
      [
        "log",
        -10.260244369506836
      ],
      [
        "▁ska",
        -10.260491371154783
      ],
      [
        "ním",
        -10.260592460632324
      ],
      [
        "▁czy",
        -10.260614395141602
      ],
      [
        "med",
        -10.260647773742676
      ],
      [
        "▁Club",
        -10.260815620422363
      ],
      [
        "▁issues",
        -10.261131286621094
      ],
      [
        "aus",
        -10.261247634887695
      ],
      [
        "▁Οι",
        -10.26279067993164
      ],
      [
        "ách",
        -10.263439178466797
      ],
      [
        "ým",
        -10.26357650756836
      ],
      [
        "sid",
        -10.263586044311523
      ],
      [
        "▁projekt",
        -10.264062881469728
      ],
      [
        "cas",
        -10.26417064666748
      ],
      [
        "kla",
        -10.264226913452148
      ],
      [
        "field",
        -10.264593124389648
      ],
      [
        "▁respect",
        -10.264684677124023
      ],
      [
        "▁nuo",
        -10.26491928100586
      ],
      [
        "ри",
        -10.265294075012209
      ],
      [
        "frac",
        -10.26580810546875
      ],
      [
        "▁Gi",
        -10.265968322753906
      ],
      [
        "▁factor",
        -10.26738166809082
      ],
      [
        "▁hebben",
        -10.26743221282959
      ],
      [
        "▁proces",
        -10.267494201660156
      ],
      [
        "old",
        -10.26756763458252
      ],
      [
        "▁gibt",
        -10.268106460571287
      ],
      [
        "ral",
        -10.26828384399414
      ],
      [
        "▁Kar",
        -10.268390655517578
      ],
      [
        "stru",
        -10.26845645904541
      ],
      [
        "▁cas",
        -10.268789291381836
      ],
      [
        "▁issue",
        -10.269187927246094
      ],
      [
        "▁America",
        -10.269326210021973
      ],
      [
        "▁Let",
        -10.269803047180176
      ],
      [
        "▁student",
        -10.269816398620604
      ],
      [
        "▁Sta",
        -10.271096229553224
      ],
      [
        "iť",
        -10.271974563598633
      ],
      [
        "pad",
        -10.272113800048828
      ],
      [
        "▁Our",
        -10.272295951843262
      ],
      [
        "▁comp",
        -10.272564888000488
      ],
      [
        "ward",
        -10.272834777832031
      ],
      [
        "▁Center",
        -10.273961067199709
      ],
      [
        "▁page",
        -10.27406406402588
      ],
      [
        "▁sans",
        -10.27412223815918
      ],
      [
        "у",
        -10.274506568908691
      ],
      [
        "▁Bau",
        -10.274596214294434
      ],
      [
        "hl",
        -10.275080680847168
      ],
      [
        "▁Om",
        -10.276195526123049
      ],
      [
        "▁app",
        -10.276480674743652
      ],
      [
        "▁metal",
        -10.27652645111084
      ],
      [
        "▁zich",
        -10.277813911437988
      ],
      [
        "cor",
        -10.277860641479492
      ],
      [
        "▁Tor",
        -10.277894973754885
      ],
      [
        "▁gra",
        -10.2781400680542
      ],
      [
        "▁Š",
        -10.278257369995115
      ],
      [
        "▁served",
        -10.279212951660156
      ],
      [
        "▁stop",
        -10.2794771194458
      ],
      [
        " ;",
        -10.279927253723145
      ],
      [
        "ného",
        -10.27999210357666
      ],
      [
        "owa",
        -10.28028392791748
      ],
      [
        "▁muy",
        -10.28078556060791
      ],
      [
        "ām",
        -10.280843734741213
      ],
      [
        "▁taken",
        -10.281099319458008
      ],
      [
        "▁kell",
        -10.281193733215332
      ],
      [
        "sur",
        -10.282864570617676
      ],
      [
        "▁sen",
        -10.283259391784668
      ],
      [
        "ong",
        -10.283449172973633
      ],
      [
        "oni",
        -10.284162521362305
      ],
      [
        "tó",
        -10.284500122070312
      ],
      [
        "▁Sp",
        -10.284660339355469
      ],
      [
        "▁weight",
        -10.285357475280762
      ],
      [
        "xi",
        -10.28543186187744
      ],
      [
        "nim",
        -10.28545093536377
      ],
      [
        "▁oma",
        -10.285507202148438
      ],
      [
        "▁vý",
        -10.285749435424805
      ],
      [
        "▁pré",
        -10.285900115966797
      ],
      [
        "pan",
        -10.286371231079102
      ],
      [
        "▁hatte",
        -10.286538124084473
      ],
      [
        "▁week",
        -10.287033081054688
      ],
      [
        "▁où",
        -10.28707218170166
      ],
      [
        "▁once",
        -10.287155151367188
      ],
      [
        "pis",
        -10.287192344665527
      ],
      [
        "vas",
        -10.287480354309082
      ],
      [
        "▁patient",
        -10.287882804870604
      ],
      [
        "▁Now",
        -10.28817081451416
      ],
      [
        "▁αν",
        -10.288315773010254
      ],
      [
        "▁money",
        -10.288629531860352
      ],
      [
        "aci",
        -10.2886962890625
      ],
      [
        "uta",
        -10.288936614990234
      ],
      [
        "▁High",
        -10.289226531982422
      ],
      [
        "▁education",
        -10.28940200805664
      ],
      [
        "▁κ",
        -10.289966583251951
      ],
      [
        "▁needs",
        -10.289986610412598
      ],
      [
        "▁Roman",
        -10.291559219360352
      ],
      [
        "▁amount",
        -10.292033195495604
      ],
      [
        "▁enough",
        -10.292057991027832
      ],
      [
        "▁Esta",
        -10.294393539428713
      ],
      [
        "ula",
        -10.29518985748291
      ],
      [
        "▁types",
        -10.29532241821289
      ],
      [
        "▁clear",
        -10.295594215393066
      ],
      [
        "ować",
        -10.296613693237305
      ],
      [
        "▁mass",
        -10.296652793884276
      ],
      [
        "ilo",
        -10.296733856201172
      ],
      [
        "▁limit",
        -10.297307014465332
      ],
      [
        "nä",
        -10.297310829162598
      ],
      [
        "▁Ki",
[...]
